/**
  ******************************************************************************
  * @file    network_data_params.c
  * @author  AST Embedded Analytics Research Platform
  * @date    Wed Dec 27 14:47:37 2023
  * @brief   AI Tool Automatic Code Generator for Embedded NN computing
  ******************************************************************************
  * Copyright (c) 2023 STMicroelectronics.
  * All rights reserved.
  *
  * This software is licensed under terms that can be found in the LICENSE file
  * in the root directory of this software component.
  * If no LICENSE file comes with this software, it is provided AS-IS.
  ******************************************************************************
  */

#include "network_data_params.h"


/**  Activations Section  ****************************************************/
ai_handle g_network_activations_table[1 + 2] = {
  AI_HANDLE_PTR(AI_MAGIC_MARKER),
  AI_HANDLE_PTR(NULL),
  AI_HANDLE_PTR(AI_MAGIC_MARKER),
};




/**  Weights Section  ********************************************************/
AI_ALIGNED(32)
const ai_u64 s_network_weights_array_u64[4795] = {
  0xbec4f6fc3f351acbU, 0x3e6e9323be8626e7U, 0xbca1ea14be4ea7a3U, 0xbe15cd8b3e661035U,
  0xbecfcc20be748544U, 0x3e07cd86bdc08d26U, 0xbec5ed9a3d4a553aU, 0xbd3977a13eaaa9caU,
  0x3dc7a1813e8ed651U, 0x3e4ec0c4bea2884aU, 0x3f14f2e9bd9ed750U, 0x3f80b2d0bea7ef2bU,
  0xbf38fa893efba7ccU, 0x3f2ace7b3da44d54U, 0x3f0e0a1e3e9d4edaU, 0xbf1c857e3e4bf94fU,
  0x3e21032cbe2e0e63U, 0x3eb1d8133e7a1c12U, 0xbf724f343f3abab4U, 0x3dcdc0ea3f196053U,
  0xbd07fcb1be24e1e8U, 0xbe82a6913eb80cf8U, 0x3e15e622bf03110aU, 0xbda14edd3970a550U,
  0xbecd68de3e57785fU, 0x3eb69afbbebf7480U, 0xbeb439323f141d74U, 0x3e23fe753de4c2b0U,
  0xbdfc2a413d0648fdU, 0x3e26de98bf3190aaU, 0x3d6a50d3bdcfcd5eU, 0xbe2439163d4429ddU,
  0xbe885df5bec7033bU, 0xbe7eaf60be9bd514U, 0xbd6b198a3e6b5845U, 0xbd8bde773eb8f938U,
  0xbf1bc6963e7fc9d3U, 0xbdd18f88bd38db97U, 0xbe5b131abee42e9cU, 0xbe8f76b0bd695514U,
  0x3e5f23b2bea10513U, 0x3f1e8a91bedf1a8aU, 0xbd9cf4d7bd393870U, 0x3e17a89fbd1f2b2aU,
  0x3e81ae0d3eb21c78U, 0xbe9699abbe24518aU, 0x3f351766befbe61cU, 0x3c324fcd3e1a9a0aU,
  0xbf2beb583cac9472U, 0x3e7ce1783f023e7dU, 0x3ead9fe93ea54c6bU, 0x3f0c5ca03ef344e6U,
  0xbdbc7fc9be89bf26U, 0xbc573b3abdf252fcU, 0xbe74418cbdd3dc72U, 0x3e15c9b33f000695U,
  0xbec6b9fbbd6ae4fbU, 0x3e8d357c3e11d6b4U, 0x3e37830fbed2742fU, 0xbea1d4d73e933001U,
  0xbe48e808bf1a5b3aU, 0xbde501753e31b619U, 0x3f087757beb267f1U, 0xbe53c998bef860bdU,
  0xbeb399c9bb79dadfU, 0x3e6b1bb7be84acb6U, 0x3dc8dd1d3eec30efU, 0x3d73bb8d3e0d22dbU,
  0x3e42354fbe21b277U, 0x3e662e2ebef6062eU, 0xbeca7d0dbe3955d8U, 0x3e72419bbe11db1dU,
  0x3e7a93c1be9f8c96U, 0x3e43c3c63df557feU, 0x3db2793fbdfd5150U, 0x3e87c02dbd9c7dd1U,
  0x3db73bf23ee07175U, 0xbecba7aabf51d7d8U, 0xbedd01eb3efaddc9U, 0x3f559c99be27ba1fU,
  0xbee97a993e65f417U, 0xbde4c2453ac14e2cU, 0xbcf2ecedbe9d8564U, 0xbf0df107bd9ca304U,
  0x3e31f8603d8a586aU, 0x3ebb98dcbf0a4f4eU, 0xbf09bb26bd1ca807U, 0xbf03863cbe568ff0U,
  0xbe1d7dc7bde0dc60U, 0xbe76d808bca3b4a2U, 0x3e5126febe92f987U, 0xbf2b31b6be984987U,
  0xbea4f28ebd070592U, 0xbea47564bdeb89c8U, 0x3df5f58fbe510691U, 0xbe82e1313d19ca02U,
  0x3e7eb20b3ea88b7cU, 0xbe70a663be9b9a01U, 0x3e5a8173bce3384eU, 0x3e677961be907eafU,
  0x3e943e7e3eea033aU, 0x3ea5be77becc9bbaU, 0xbf2477bb3f418a55U, 0x3cdfc2c23b8ca163U,
  0x3e26b3d7bed26acbU, 0xbe3acababe060038U, 0x3e883e30be3bb0bdU, 0xbf007165be44c531U,
  0xbd8a194fbea20c27U, 0x3e59c404bde356f0U, 0xbd4d27f13e5c29d4U, 0xbeaaab803f31cd3aU,
  0x3ea4d55f3e8a52e1U, 0x3e906fccbefe77e1U, 0xbeb666aa3ee737c3U, 0xbf0a70a5bcfe7ccfU,
  0xbd86f6bcbd2d6e30U, 0x3e9a224e3e90410bU, 0x3eb0a58ebeaeaa89U, 0x3e9834a1befb1775U,
  0x3dc6cdd43edc36daU, 0x3e063e8bbe34aebbU, 0xbed251d5beb1ccfdU, 0xbf31de2b3eb1dc80U,
  0xbdbd25c1be87ff8bU, 0x3f1adeb7bdb45e5aU, 0x3dce7955be360dfaU, 0xbf0d61ebbecd0e53U,
  0x3f02f549bd7061b3U, 0x3d9f75f4bdb5e573U, 0x3dfdaeaf3e1d6132U, 0x3d50b7dcbe1d4eddU,
  0xbdbfff44bf191355U, 0xbe657e0a3f060052U, 0x3e796072bf59ef4eU, 0xbde8b37ebe8b65e4U,
  0x3ec68e9abd46fbb1U, 0xbdfdfe88bd0d7b7fU, 0xbf143689bdb7beecU, 0xbe7961753d88d21eU,
  0xbea28a3cbe29c0d5U, 0x3eafddf1be5610a8U, 0x3ee4839ebea3127eU, 0xbdc53eb7be366e02U,
  0x3ec08e53bdf0c739U, 0xbdc0a918bf0a46baU, 0xbe726fe63e3246c2U, 0xbe7f7b4f3f30ca68U,
  0xbe5d89eebec1f058U, 0x3e2e07513daf42ccU, 0xbe4215f83d09e354U, 0x3e35f7b1bede0e2cU,
  0x3e0c7c8cbeb097e2U, 0xbe9876ae3f273c76U, 0x3e9f18a93f783a43U, 0x3ecd76f8bf3ae783U,
  0x3e73835e3ef268b6U, 0x3e4297773eb54c9bU, 0xbe892f343e8e0aa4U, 0xbdf5d978bcb4f9a2U,
  0xbea1b3803f14a9c3U, 0x3ea6ed5bbf8d1de2U, 0xbecb4185be20bd26U, 0xbeba6a193f115a07U,
  0xbdec76f7befcd555U, 0x3f35560abe8451a3U, 0xbd3d9c483e527861U, 0xbf29d06bbed84a2aU,
  0xbefff5193d643b17U, 0x3e98bc6c3d959b5dU, 0x3ea8c7cebf61a0ddU, 0xbe56743e3e3568cbU,
  0xbd503886bf1c445cU, 0x3d922506be194d37U, 0x3e2232fdbe7cdb38U, 0x3eab46543f0d287aU,
  0xbe1429ac3ebababfU, 0x3cec35c93caefc56U, 0xb9f14bf1be207f35U, 0x3e3f4f863e6cdf8bU,
  0xbcf36cecbe6a1413U, 0xbe31c64ebf2be5c7U, 0x3f1505afbe081394U, 0xbd8201b63ec76143U,
  0x3e9104efbe97aa54U, 0xbe682102be017fe4U, 0x3e3fc8cebf3f594bU, 0x3e7f36223e6cc399U,
  0x3d685b2c3ed4f543U, 0xbdbf28d5be5b14f9U, 0x3ddc35ce3e8660a8U, 0x3e3213b33f0b4dbbU,
  0xbe83b25d3e3e2959U, 0x3f2b66683d5725afU, 0x3e55078a3e72ebd0U, 0x3ee6c8c23f163f4fU,
  0xbf43ac1c3e900557U, 0x3e46f7e33e84db15U, 0xbe40d720be79f63cU, 0xbf96f1ad3f311de3U,
  0x3e88b79dbf2c3058U, 0xbee3117ebdf763b3U, 0xbcb58ecb3e7286deU, 0x3ec846b3bedb98d3U,
  0x3ddb258cbd3a5c80U, 0xbdabe72c3ed75f96U, 0x3e8ce820be6ed357U, 0xbc5bf5063d5cb427U,
  0xbdc19c503da9ded8U, 0xbeaeb4393f0e40e6U, 0x3db72f25be8d2fa2U, 0xbe95bd773dcedfb4U,
  0xbe70a8603eca895aU, 0x3eda1d4bbddc8506U, 0x3d28a273bd060805U, 0xbea629263e0301c4U,
  0xbeaee444be9da015U, 0xbe5eacc3be8f8109U, 0xbef303e4beb1f007U, 0xbf1d404f3ead627fU,
  0xbd1715cbbdb617c7U, 0xbe79ecdb3e29250fU, 0x3ef3b7f0bdca70ebU, 0x3d0512103da28b80U,
  0x3cd8ef9dbeb1866fU, 0x3ec7eb61be01c8ecU, 0xbe4952033e2a34d7U, 0x3e0aebd13d9b3a87U,
  0xbe9e5fb23f3c07c4U, 0x3d5b3b33bdc9b735U, 0xbe944b37bd8e458cU, 0x3d3cb2aabefdd4e4U,
  0xbe1dc0923e9baaf5U, 0x3e7515113e12d2d2U, 0xbe553deb3eb71ab4U, 0xbe5b0b76be292ff7U,
  0x3dd421ed3eb44145U, 0xbd83f806be465cdaU, 0x3e2f5c293dcb4983U, 0x3e7f0d833dead308U,
  0x3defed7ebcac8c17U, 0x3e487e13bed86a2aU, 0xbf1d303d3e6c9b50U, 0x3e3aa52d3dfd4608U,
  0x3e8e8fc13e96e10eU, 0xbc137669be585952U, 0x3eb70e14be4c5e6cU, 0x3d8cd2dcbdd91472U,
  0xbe34cab7bb69de1eU, 0x3db83ca43ee8838fU, 0xbdad94afbee962deU, 0x3e8aac2a3e9cdba7U,
  0xbca1bdea3ec88361U, 0x3f334320be7146f5U, 0x3e91159c3f2454fbU, 0x3e109f00be1644e7U,
  0x3d98a2313e6dee36U, 0xbd947e57be367629U, 0xbeee682ebe551923U, 0xbd4fbd693ed4eafdU,
  0x3e090155bd4a2e08U, 0xbf0118d3bc8506edU, 0x3e01a325be595825U, 0xbd9482303d6b9a33U,
  0x3dc1db133e0f0c67U, 0x3e74c0633de756b2U, 0x3db96942bd899b5dU, 0xbdf0e8023d2385b1U,
  0x3ea6274b3e1243b3U, 0x3dde83babd7289beU, 0x3da2afff3e8409fbU, 0xbe1f855fbdd889aaU,
  0x3d5583c03e24f246U, 0x3da45ed0bd732861U, 0x3edf1e69bec277abU, 0xbceee062bcdb4177U,
  0x3d7950503d6069fcU, 0xbc59958b3e7259d7U, 0x3e8a53d5be43b04eU, 0x3d4f4f963df30037U,
  0xbd8efea63e4cd15eU, 0xbdffd15a3e60dd2eU, 0xbd680fe03dc05c50U, 0xbe766e03bc6c1a25U,
  0xbe0762b93d275bc5U, 0x3e12ef14bec8466bU, 0x3d00ab73be3c6bc3U, 0x3ce18151bda2ea65U,
  0x3ee57129bd27ba5aU, 0x3e3af76dbde172e4U, 0xbe1a2d3ebf108417U, 0xbe984b083c78f977U,
  0x3ed91cbbbd342dd0U, 0x3ede86ebbe7fa68cU, 0xbd5307353f12904cU, 0x3dcd33e7bbd9f37fU,
  0x3e218e8dbdbf30a7U, 0x3e77ede1be8bb770U, 0xbf0ac5ecbd4f7cfbU, 0xbe85b38e3ecbf604U,
  0x3dacfd46bd2cc723U, 0xbdba44463e8c6859U, 0xbef218503ecd07e4U, 0x3ec188e7be07f6d9U,
  0xbe4b1db33e9b526eU, 0x3e3d9e96be371f2bU, 0xbe406af83c0f7d82U, 0xbc388b1cbecac7b6U,
  0x3cf15f7dbe58cd3dU, 0x3e80bb9b3e8c528fU, 0xbe13b46fbe911314U, 0x3d4d821ebe021e57U,
  0x3cf0a2a13d654c7bU, 0x3efaabe4bc824182U, 0x3d9ad7043eee05f4U, 0x3ed6880b3e460096U,
  0xbecc45dcbcdcc456U, 0xbd8a0d7b3e9b5c95U, 0xbe097bba3ddd1f2cU, 0x3c8d8c953d900ce6U,
  0xbe9296583e06daabU, 0xbe4ae2edbb7ddac7U, 0x3e1685893e283417U, 0xbe245480be1a43e4U,
  0xbe22bce23eed84f2U, 0x3cf1b909bd1fa88bU, 0xbf1b7936be8685f0U, 0xbde0d6d2bedd5996U,
  0x3dab459abe617d41U, 0x3ed7aae1bf0540dfU, 0x3da2ef243e0c6030U, 0xbf2675353eeb6a24U,
  0x3e892db03eafa738U, 0x3e22ce6cbe6118c2U, 0x3d3ebe54bdc2e911U, 0xbf2401c43da12dd1U,
  0xbe7af47fbe80770eU, 0xbe453a3dbe515366U, 0x3ecf3af7bf030cffU, 0xbdb07db7beb1a480U,
  0x3cc760e0be89d83dU, 0xbd0e30e5be3f1e57U, 0x3e2c093e3db40bf8U, 0x3e58f40fbe00a22fU,
  0xbcf0e69e3e4dc37cU, 0xbd62d441be6e261dU, 0x3c759696be618b89U, 0xbe87efb03d9e4166U,
  0x3da942703de3cfefU, 0xbe2c5dc1bdcff691U, 0xbd571bf33d9cf314U, 0xbd966ff7be101ca9U,
  0xbe3e500e3f04aab9U, 0x3e10f5383e53f7baU, 0x3e4481863e1bbebdU, 0x3ebd94023cbd49fcU,
  0xbf00e3e43e657160U, 0x3e0871273c96eeedU, 0xbe2663733dcb84b4U, 0xbd00695abd449218U,
  0x3d51a7b03e723518U, 0xbccbea01bcadcb8aU, 0xbe70f6ce3e280548U, 0x3e90df953c1d6576U,
  0xbf1086b73de3d8abU, 0xbeea42a43e1e997cU, 0xbf082ea33bf62360U, 0x3e3c16ba3ee54421U,
  0x3ee1ab2cbdb99b2fU, 0xbf0e56dabeabdfc6U, 0xbdbabaf1bcd7e8a0U, 0xbf1e108a3e40aae7U,
  0x3d8308ffbe3d5b5aU, 0x3de96d20be3a60bbU, 0xbefc87c63d6063c1U, 0x3d969703beb30577U,
  0x3e4eb842beacf63bU, 0xbc7b1af33ea08402U, 0x3d9a0f8d3d81fc15U, 0x3e2cf8c5befd7944U,
  0x3e381416bed50173U, 0x3e24c29fbe19d16dU, 0x3e301065bd4e7126U, 0x3c372d853e5649ddU,
  0xbdf583bc3f28a417U, 0x3e58bcf2be765a5fU, 0x3e93b56c3c06fb02U, 0x3d3ef5fcbd6e4208U,
  0xbec769dabd7f68f8U, 0xbe043edabe8307ccU, 0xbeccdd9bbe0ad888U, 0xbc9ea2d8beac8b48U,
  0xbeaae587be64afc8U, 0x3f1f459a3ece62bcU, 0x3e83d72f3e8c2086U, 0x3e198ad2be83323aU,
  0xbe0deb00bd69bae3U, 0x3ddd02dabe0999bcU, 0xbe9b959fbccbf9ebU, 0xbe2f14a93e87de91U,
  0x3e63b700bcd9bd35U, 0xbe85f69f3e32fdacU, 0xbec049dc3ea561c4U, 0xbd4f8df33e6fad42U,
  0x3d071d613eabd489U, 0xbd1315de3e1d891eU, 0x3eb2398a3d8da579U, 0x3edca4e53da39e12U,
  0xbb3a2742bce34382U, 0xbe023aab3e8c996cU, 0xbd10118bbea9bc03U, 0x3efcaabfbea42668U,
  0x3cc9606ebca86309U, 0x3dac936b3bd759a1U, 0x3e8ea902beac3e10U, 0x3cf31885bd066daeU,
  0x3e099824be9218e0U, 0xbc4b7b2b3cca6a7fU, 0xbe2d0a38bd5285feU, 0xbd76da453c2ca5faU,
  0x3e8d3ed63dbe489bU, 0x3de81e2f3e888650U, 0xbe9dcd2abe3f88b1U, 0xbe7fe0393c535654U,
  0x3e2b16a23e1fe65dU, 0xbec1659d3d92353cU, 0xbcc368493e1f2715U, 0x3df0c1c93db078ebU,
  0x3f20c5f7be9e0358U, 0xbdf1b4d4beb391b3U, 0xba934880bc788cc2U, 0x3da0b7b53defe95fU,
  0x3dfb5f113e69674fU, 0x3e71efa1be8a29eaU, 0x3cce98cd3f0b8b02U, 0xbe0733c73ddfb4b0U,
  0x3ebed863bea8183eU, 0x3f0d2c773e931f02U, 0xbb39cdc4bd8d86d7U, 0xbcb3bc163d64aac0U,
  0x3ea9a5b9bebbec0aU, 0xbe3b2f23be8ebdfdU, 0x3ce5eefabc074d28U, 0x3e817de4bd8bc2e6U,
  0x3e66065abec196acU, 0x3db2fa423dadab17U, 0xbe1401d6bdeec20cU, 0x3d388ca2bf1c1c21U,
  0xbe242ef33d0dbaacU, 0xbe0b4eac3e890435U, 0xbec15cfc3eb3038eU, 0x3d9962433e918d58U,
  0x3e9458103db5d24eU, 0x3defce8f3dd770e9U, 0xbe87e5303da953b9U, 0x3d6313f5bec3eb7aU,
  0xbc8b65073c822967U, 0xbeaa49f43de57089U, 0xbe7454113ed30e8aU, 0x3e7fb89dbeae7581U,
  0xbe3b9882bf18f6feU, 0x3dd8d2a0bdfc8250U, 0x3d875b543d99ec8eU, 0x3d2bd2ba3e71a3a7U,
  0xbdf5f6503e5ce586U, 0x3ea354e33a6b0b87U, 0x3e73c030be0d2ec5U, 0xbde04d703ea83685U,
  0xbdfa14763e9339e6U, 0xbd270e1bbe0cab9aU, 0xbd184957bed83c16U, 0xbe96bb153eb2df44U,
  0x3e6de2223db40bc5U, 0x3d4a9d64be92364dU, 0x3d8f26b03cc7a9f8U, 0xbdc59a453da1ba06U,
  0xbe15fc7ebe026a59U, 0x3d8d18c0be67d53aU, 0xbe8b137fbe1636deU, 0xbdf43052bcffdd87U,
  0x3e7829243c2c7d80U, 0xbec297aebd5640e7U, 0x3d85433a3ecb14a4U, 0x3ce4939ebed10707U,
  0xbddc17253e15e2fbU, 0xbf0f8a463e8982d7U, 0x3da1c6b0be763e76U, 0x3e2717e3bd97f30aU,
  0x3ec81e7cbe7f20baU, 0xbe5bf519be95d48eU, 0xbdcb3dcbbea8f9e8U, 0xbd513b77be2e33c1U,
  0x3e878b073d80ccb0U, 0x3ea0c11fbdb3ae43U, 0x3daafd1abab80c7fU, 0x3da4a68cbce26aedU,
  0x3ed64e8bbe200d9fU, 0xbe2f6bafbdb65a82U, 0xbe7ccbd53e9f1428U, 0x3dcad47a3e96a9bfU,
  0x3dbfb6913d8c836bU, 0x3e89f9383dbfcb6bU, 0x3ea197efbedd3389U, 0xbddba086be1435e2U,
  0x3d7080be3de92850U, 0xbe93f4ea3e23f76bU, 0x3dd0e03dbce63501U, 0x3e87a6da3e198674U,
  0xbbb79d9b3e8a4a03U, 0xbe23c74bbe8dbe88U, 0x3e95b5133ddc1b48U, 0x3d8d1b073ecc3ac6U,
  0x3e65ef0ebe48c3ddU, 0xbe18677ebd73ded4U, 0xbc5e1f9abc70ce20U, 0xbd8402383d051310U,
  0xbe003bf13e649c6dU, 0x3d5bcd423e785e76U, 0x3cea1b65be02e699U, 0x3cc6e77f3e7423f4U,
  0x3e0122183e0ace14U, 0x3d78eec23ba0414bU, 0xbe0246863e168c83U, 0xbe727841bea93320U,
  0xbdaf4f3cbd79da58U, 0x3d3afada3e1125ebU, 0xbe8dabc73e5b90caU, 0xbdd7325bbd6ad671U,
  0xbe86c789be798596U, 0xbd2d4b29be05c703U, 0xbd498a1a3d69554fU, 0x3dc0403abe9f40edU,
  0xb91905ac3e6cc981U, 0xbe5b1cf9be54752dU, 0xbeab81bcbeaa0728U, 0xbe62771ebe0a252cU,
  0x3e2827a43e1d3f1cU, 0xbd0e9113bd6cd6f6U, 0x3e85a5de3e31dcedU, 0x3e2891c13d98e023U,
  0x3d179f69bdcc430fU, 0x3c36b7d33d8400b2U, 0x3ee6027b3e80c2c9U, 0xba544ce8be010af9U,
  0x3c8349ad3da4ce4dU, 0x3e88255bbce0b98aU, 0x3e46c7713e0eed71U, 0x3d63066f3e220849U,
  0x3e161e0bbe248b0eU, 0xbdcd8508be39a461U, 0x3e393207be5ff1a3U, 0xbed016333dad672fU,
  0x3e4597f9be39e3dfU, 0x3d92e5e6be26dd6aU, 0xbe8a41cb3e831297U, 0xbe106f4b3d8cbdd1U,
  0x3eb36c96be90cc5cU, 0x3e8667393e116782U, 0x3e43662c3dfb13b0U, 0xbd40b371bed33094U,
  0xbc8c0e9e3e0a1841U, 0xbe0ca7ca3ea02396U, 0x3d6f549e3b8e6af0U, 0x3e7e356abe2acb2cU,
  0xbee2f25a3eb41c00U, 0x3b732c703df44fa2U, 0xbceb7e743e181d62U, 0xbde0aeda3eb45c16U,
  0x3d23e5b93d6f7106U, 0x3cf236b93e241c3dU, 0x3e0d720fbdf8ea2dU, 0x3da3c8c6bce2fa4fU,
  0x3dcb4bf23e6492cbU, 0x3e940e503de77df2U, 0x3ea51c9bbec831fcU, 0x3e9f3a043ea3528bU,
  0xbebd8b533d39a4a5U, 0x3d808966bea99b94U, 0x3d33bb303e645aa4U, 0xbd0257a63e232d2bU,
  0x3e2cc92cbee54425U, 0xbe595e70be5035aaU, 0x3ec7ac68bd4680b8U, 0x3c4da551bbe5dc36U,
  0x3e4a5df9bd86b09aU, 0xbe8011a73d2d904dU, 0x3eb5eae6be02d832U, 0x3d3596ebbde56ab7U,
  0x3df583ba3e41ee90U, 0x3d486ae3bdd05ab2U, 0x3e3c4b92be1b21a6U, 0x3dde8bd33ef6a9a3U,
  0xbee1c54c3eab4a58U, 0x3dbdf3cdbc5e96f1U, 0xbd4c95483ee2cc77U, 0x3da9f4b03e09750aU,
  0xbe9980273da8420dU, 0xbd562b4fbed77584U, 0x3de936ffbec6a65eU, 0xbe08f53abe27fb6dU,
  0xbec42a5d3f10a017U, 0x3e5d0649bf1f4e81U, 0xbeaaf2c93e130968U, 0xbd533c9e3f5a6311U,
  0x3e9a9a8d3d4a1a63U, 0xbd654969bd125243U, 0x3eae8b76be94c9d9U, 0xbe6c8b573de77e79U,
  0xbf76d8303f5f5f59U, 0xbe007059bdabd5d4U, 0x3da507023e0581b9U, 0x3e56c153bf3e02e0U,
  0xbef090ed3f1f3c5bU, 0x3f2649dc3ec719aaU, 0x3f2524a2be0c31d9U, 0xbee86062be7fb421U,
  0xbecef753be7230c5U, 0xbf054760be926ed0U, 0xbed816dc3ce765cfU, 0xbdab25ee3f54b10fU,
  0xbea61e053dcfbf19U, 0x3f04d5eabe919bcbU, 0x3d7f8b7dbf32f1f8U, 0xbd9116633dbf808eU,
  0x3de858b93eddd8d9U, 0x3eb0230ebe5af835U, 0xbe8602d8bca3e1b9U, 0x3e88763c3e6b3c7aU,
  0xbde398e9be3b5213U, 0x3e0601fabe8417c1U, 0xbe8bd9c23d6c4f8eU, 0x3e21a778bec88761U,
  0xbe7b8fffbde8ad8bU, 0x3dadadbd3f0b265bU, 0x3eef09523dacb311U, 0x3f0f13debf0928e8U,
  0xbe30bff2bf158111U, 0xbf37437bbeda25e3U, 0xbdcd923a3e9c783dU, 0x3e22dde53e5193a1U,
  0xbe80e237bc8a916aU, 0x3f42f2843e2dd101U, 0x3f1c3110bf213613U, 0xbef38fe73e973f1cU,
  0x3e988f713e0db930U, 0x3d32e8143d22985bU, 0x3ce802f4bea4174fU, 0x3e905b8b3e337035U,
  0xbf85bdddbe86775eU, 0x3e7a3150be654c27U, 0xbdf8ea073e8d0f63U, 0x3ef813d7be657eadU,
  0x3da0f90bbe76b663U, 0xbdb794d63e4b7054U, 0x3ee1cb57be8a85e8U, 0x3f6075f23df61bb2U,
  0x3d38ae6abe55073dU, 0xbb80e229be91eb45U, 0xbe62e6af3d14685bU, 0xbd2ad0303f5c38a4U,
  0xbe11e0ad3f756cc3U, 0x3e4e5be43ce91aa0U, 0xbea032b53dfe738cU, 0xbe57e7cebe661700U,
  0xbcef93dc3eace172U, 0x3f665cb8bf0422ebU, 0xbf1284433f5f423cU, 0xbf018ac3bebed50dU,
  0xbbccb967bcceea39U, 0x3f80ba2e3e06283bU, 0xbe102cef3e62b90fU, 0xbd8cdc16be0c11eeU,
  0x3e822442bdc2cecdU, 0xbe33d85f3e20a473U, 0x3e29e667bedbf990U, 0x3f080a76be228da9U,
  0xbee7ab703ed475a1U, 0xbf165f6ebf1261b7U, 0xbeb7bf81bebc2414U, 0x3eef6554beadae94U,
  0xbf4645c43f0d7828U, 0x3ced00de3d38f489U, 0x3e8a16dfbe9769d8U, 0xbe7fb751be894974U,
  0xbec72e063ea5dc8cU, 0x3ee3a60cbea09591U, 0xbf1650bb3f497c43U, 0xbe971d47be11eed7U,
  0xbe45262cbe136850U, 0xbce7ee64bf1fa2dcU, 0x3e4f1d7c3e2ccd8fU, 0x3f177860bc8e5db2U,
  0x3d531aa9bc60d35fU, 0xbeac8b403e2cc9deU, 0x3e311a873eabc43aU, 0x3ede3f4b3e89671aU,
  0x3e9d885cbdbf9cbeU, 0x3ddd770fbef4dcb3U, 0xbd7e7fcf3e207f67U, 0xbb9dbc9ebe5a5592U,
  0xbe9ef5863eeeeab6U, 0x3ebe42e9becdc1f8U, 0x3e45f38c3dbef874U, 0xbecbb3ad3ec1e406U,
  0x3c933176be8450b7U, 0x3dd0d1b6bf02f281U, 0xbd277ca63e3456a0U, 0xbf45cffe3cdbf93bU,
  0x3e5f49e93e83966fU, 0x3ef0bbda3d28c8e9U, 0xbeba9e753dd5201aU, 0xbe014d2b3db3f769U,
  0x3e10611d3e875650U, 0x3e8948afbd586e01U, 0xbf36319e3f4fba0fU, 0x3ea4fc0bbe873c85U,
  0xbe5b3f28bd339813U, 0xbba91b473eb2e37eU, 0xbf1535d7be869a59U, 0x3dd4f21fbecc86c2U,
  0x3e44b504be82331eU, 0x3e58ec27bd60d304U, 0x3d455f7dbf4c53c5U, 0xbf6435483f81c52fU,
  0xbed5907e3e7f6a43U, 0x3eeec1113dbd0620U, 0x3e8f9a27be713406U, 0xbdd158323eb18b94U,
  0x3d775a0dbeab48a4U, 0xbd47615bbde61232U, 0x3d5a47913b30f81aU, 0x3ebe76f2bf223c5eU,
  0x3e124a8bbe9e57dfU, 0xbf62de303f005587U, 0x3f4ad3f7bd1fad76U, 0xbe3b16e2bf573f24U,
  0xbcbe05af3da65dafU, 0xbc9b270bbe63aeddU, 0xbdf2668bbda54bf5U, 0x3e7899c33eb65a66U,
  0xbd90e592bef900ceU, 0x3f1b80b9be17e513U, 0x3ed06737be0d2d2eU, 0xbdbbb9753e4b329bU,
  0x3f0264b4be84a3c2U, 0x3e6b6c923dea6493U, 0xbe1ba6c83de963f9U, 0x3ccb1c253e2964d3U,
  0xbf3340bdbe561886U, 0x3ddfcfc43ebc3c20U, 0xbe8598af3e2173bbU, 0x3e97b042beb0456dU,
  0x3ec06a12bdef47a4U, 0xbe01b3553ec7aba4U, 0xbe8b20953dee3666U, 0x3ea72cecbe2e73d4U,
  0xbec471063ec214fbU, 0xbce953e83d7635c2U, 0xbe64a890bd404cfdU, 0xbe057fbd3d294edbU,
  0xbf6796a83f171e87U, 0x3e826721bf530841U, 0xbd95fcddbee0fa1dU, 0xbd41562c3e9f6a77U,
  0x3de83686bd8667b0U, 0x3ef779c9bf0e6580U, 0xbf212d543e354d24U, 0xbf219efdbf1855b5U,
  0xbd084ebf3f10e588U, 0x3e21c172be96fcc3U, 0x3e5c7d83be31cd4fU, 0x3d9a9a57beb64be5U,
  0xbdc7131abf1accacU, 0xbedea1473d855741U, 0xbdcf7e2abe43a792U, 0x3f1a5dd8be05f239U,
  0xbf47c3c63e8c6a63U, 0xbeb8b788bf5ea3ffU, 0x3d6e18b03e516bd1U, 0x3dd24e2e3ea0e2f8U,
  0xbf2c7a5e3eb7fa0aU, 0x3e2b9ac0be35361dU, 0x3e8aa391bed82a17U, 0xbeea9e9a3d90692fU,
  0xbeacf98dbd8d49f5U, 0x3dd9449dbe8b9d35U, 0x3ea723bd3e0403a5U, 0xbdc469053ed02dc8U,
  0xbf0cf3c03e954843U, 0xbcbe4be5beb18173U, 0xbee4c18c3e419808U, 0x3ecae3c2be797032U,
  0x39772ea8beb7f7b0U, 0x3e87385a3f36e43dU, 0x3bd1c45e3e1a6572U, 0xbda9120fbee9a71cU,
  0xbec45f43be1b0405U, 0xbf049861bf19eabbU, 0xbf3fe0903e946f9cU, 0x3e25179a3e1e4cc2U,
  0x0U, 0x0U, 0x0U, 0x0U,
  0x0U, 0x0U, 0x0U, 0x0U,
  0x0U, 0x0U, 0x0U, 0x0U,
  0x0U, 0x0U, 0x0U, 0x0U,
  0x0U, 0x0U, 0x0U, 0x0U,
  0x0U, 0x0U, 0x0U, 0x0U,
  0x0U, 0x0U, 0x0U, 0x0U,
  0x0U, 0x0U, 0xbd9fafa43e2a06a8U, 0x3b8814a43f6a2b22U,
  0xbd929b253dbaf4c3U, 0x3e90e7903cc680ebU, 0x3e999b213ee1aeb5U, 0xbe67a8553d7e6e2cU,
  0x3e80f61e3eba8369U, 0x3f4edc923eade053U, 0x3d6f7a153ea49fbfU, 0xbee3ab833eae30bbU,
  0x3f8c14b53f87335aU, 0x3f99d5e33f99b21dU, 0x3f7aab1a3f732d81U, 0x3f93354e3f8f7988U,
  0x3f83a8ce3f86ad39U, 0x3f85c7443f8a0bd2U, 0x3f927e753f9d2efaU, 0x3f9c4e093f9fe531U,
  0x3f9733673f653c31U, 0x3f9530de3f963d57U, 0x3dee4139be31f3c5U, 0xbdf336c73e04359bU,
  0x3d4559a83d59e4ceU, 0xbe012f49bd125933U, 0xbdf13b7ebe007e8bU, 0xbe15dee93d26affeU,
  0xbd39dd6a3e23b46aU, 0x3e04da1f3b98858bU, 0xbd9787a5bdb95e06U, 0xbe3e6ed6be15120aU,
  0x3edd21d33f467477U, 0x3e5b8f283f308a4aU, 0x3e9b3f4bbd3d72d6U, 0x3e4c1d1f3ea432aaU,
  0x3dfca5663f0d2209U, 0x3e7b685f3ebba1d5U, 0x3f01d2363e3df609U, 0x3f3910533e8023e6U,
  0x3edbe9533f45799dU, 0x3ea636433ec08915U, 0xbe42f0aa3e5f3febU, 0x3e5e292dbdd48a9bU,
  0x3d0e88e2bdb1db19U, 0x3e071fe13d67a41aU, 0x3e0cb4a33da3c99dU, 0xbdec5737be4401a6U,
  0x3dae0a7fbe844388U, 0xbe24905ebe45d636U, 0xbbc5253c3e575138U, 0x3e8626c53e4095aaU,
  0xbe2a602a3e260b46U, 0x3e207d6dbe4ffbc0U, 0xbe2df2d7be10a1f4U, 0x3e80da493ea696cdU,
  0x3e78b1d13e778362U, 0x3b8d17e6bdf3756eU, 0x3bce4c1cbe8695d9U, 0xbe8e527bbe9b3f1cU,
  0x3cdd97923e9abf44U, 0x3e230f8a3ddfc300U, 0x3dd62cb03cff3e57U, 0xbe5dea17bde74627U,
  0x3e097d69bdc10e3bU, 0xbdacf31d3ce089a9U, 0x3e37d0f2be2f931fU, 0xbe97a0503d88c37bU,
  0x3ea2c2cbbe30a071U, 0xba3323cdbe8cbbf0U, 0x3e1aed913c8dd979U, 0xbe179c883e068ecbU,
  0x3ea53c28bee0b206U, 0xbebc4f353db68425U, 0x3e5a25303da6cb38U, 0x3e635489be4afb46U,
  0xbda332dbbf08a155U, 0xbeca86d83ecaad7dU, 0x3c1e099ebe5c591bU, 0xbe35ad983dd1051fU,
  0x3d550c06beba0bbeU, 0xbeefef273d823cceU, 0xbd064bf8bea385e1U, 0xbe5473cbbd7dc7ccU,
  0x3d4f602a3e816306U, 0x3e302d273e4abe8cU, 0xbe66bf34be3b5d9aU, 0xbd0418e53e4926a1U,
  0x3db7718abe836827U, 0x3dd879f7bd374463U, 0xbe5d7750be86df98U, 0xbec971f03de1c7f0U,
  0x3d9031babdeb5e69U, 0xbdb5d4fabe07d0c8U, 0x3e48c8643de0f08fU, 0x3df156463d9004d4U,
  0xbe54abf5bdd627f3U, 0xbd7b4b943e8fc082U, 0xbe1f2e05be4d4a45U, 0xbd9c4e83bdd94d44U,
  0xbe82fed5bcc4adc1U, 0xbe42c5fa3dc04114U, 0x3d30c729be5f93e2U, 0xbe139f583c82092aU,
  0x3e79f4973d8fd36aU, 0x3e59d3b9bc6ebaa5U, 0xbd79f146be82ec51U, 0xbdb9df753e6bd9d7U,
  0x3cc16bb1bdc7cb3dU, 0xbd404968bdb332bcU, 0x3cf58141bda8dadaU, 0xbe0d9337bd118c85U,
  0xbd4f9d0ebe8b0ac3U, 0xbe2029803de94447U, 0x3e9e8fe63dac787bU, 0x3e810b25bd08469fU,
  0xbe13b49fbdf5c947U, 0x3ddf1265bcf6aefeU, 0x3d55b5bebe0d9772U, 0x3d8935cbbda4da9eU,
  0x3e236fd0bda1ca97U, 0xbc22ca6cbdb0ca2fU, 0xbe1f7479bdbeace8U, 0xbdde64583da6f73dU,
  0xbaee6dbe3e010d45U, 0x3e84788bbcf3a9b4U, 0xbebbd3f93a4547f8U, 0x3e637a8bbe12c457U,
  0xbdafe382be2c3c2dU, 0x3da00008be3d5345U, 0xbc84cba83d4f5082U, 0xbd0d42153e3bd9fcU,
  0xb9cde0da3b0126deU, 0x3d364acb3e6a445dU, 0x3d04c7383e9ebbebU, 0x3dac897fbd05a402U,
  0xbe51cfe6bcee38f4U, 0x3e0a5a23bd52d4d0U, 0x3e491b7bbcc53f35U, 0xbdebca65be908b6aU,
  0xbeccad443e66c696U, 0xbc3d576d3e994733U, 0x3e3a4450bdb61a0cU, 0x3e107f643e440dc5U,
  0xbc8efcfb3e7a87d8U, 0x3e72f359bcf2aa73U, 0x3dd3eb593da08c3bU, 0x3e841690bc1882aaU,
  0x3dce6b553e6e9e39U, 0xbc78af71bee4ee33U, 0xbeb2c6023e59f738U, 0x3c481c123e22ceb3U,
  0x3dbd307b3e08f7fbU, 0x3e7cfae63e1075f1U, 0x3e3a221c3e8654f6U, 0x3d4bfe473e000191U,
  0x3eb49cd4bdbd5e0bU, 0x3dca70f5bd68d7b2U, 0x3d95b9b23dde22a5U, 0x3da8b71ebef08250U,
  0xbe5d9b0b3ebc1679U, 0x3e1f52c13e591595U, 0xbbbeb4b43db8ab63U, 0x3e11f7b73dfc4116U,
  0x3eb7b55b3db66724U, 0xbd936e5ebd18abe2U, 0x3e2def1fbe1200d0U, 0xbe1b4b04bdc68743U,
  0x3ecb95b93e638cc1U, 0x3e424671be86aec9U, 0x3da8fd553e5ca136U, 0x3e06e1f03eb18958U,
  0x3e4680fb3da98b76U, 0xbd953f9b3daf511bU, 0x3e68f1e33e12009aU, 0xbe61a66dbe20196bU,
  0x3e1786463d76c455U, 0xbe7a27183ccf6897U, 0x3edbb6c03d3045a2U, 0x3e074d3d3d8e890dU,
  0x3e5bbe3e3dac61fdU, 0x3d8290973e6deb12U, 0x3ea12e5bbcaca1daU, 0xbe3e7cbf3d1785e3U,
  0x3e9b2f3b3c0cdca6U, 0xbe4c79f9be77148dU, 0xbdcf9da33b801f77U, 0xbe80d4133d4ca507U,
  0x3f108aa4bd361cb3U, 0x3e0e54a63e81a376U, 0x3e6e0b413d7f9ad9U, 0x3e138e953cdc0dc2U,
  0x3df50de23c8ede51U, 0xbde78cf63d66ecc4U, 0x3e731729bc83286aU, 0x3c8f2aa8be1812a5U,
  0xbd99e7323ea5e254U, 0xbdde8e0dbc0ba2b4U, 0x3f11df6cbdec2808U, 0x3e8887c53e70c3beU,
  0x3e2a80c43c0a073fU, 0xbde31b143d02130dU, 0x3e154cc03e2298efU, 0xbd6630be3cb2cc6fU,
  0x3ebc6260bd89f708U, 0x3d67dc7abdc781e2U, 0xbd9aaba13efbee7fU, 0xbbf5b96a3db670dfU,
  0x3ed92c523808722eU, 0x3ef5acb93ee6c293U, 0x3e663419bb863a64U, 0xbda2862e3e0334b4U,
  0xbc0bee2a3e8047afU, 0xbd58ea753daa0f42U, 0x3ed1218abca190c9U, 0x3e6f5a68be0c0cc1U,
  0x3d5aeaa43ed3c292U, 0x3db0c01a3cefca3aU, 0x3dc28a403d90ce06U, 0x3ef934e53ed0fec1U,
  0xbdd0a7e2bdbec5e1U, 0xbe3ca3a93d9273cdU, 0x3d0f77a63ee98061U, 0x3e4e9dd0bc83c23cU,
  0x3ebe31e6be162420U, 0x3eb3dbcfbe0a789fU, 0x3e5a8e943cd378a7U, 0xbd7c3cf23d1ea0a1U,
  0x3e3de2f33cd266b1U, 0x3ece30873e646373U, 0x3e18fc3fbbc32434U, 0xbe5bf8f7bd82e709U,
  0xbda16b1f3f2c86d3U, 0x3e0fac2a3e2ec57eU, 0x3e2da2f0beba9cffU, 0x3e408b8b3d82b63dU,
  0x3e33c5653e0265a5U, 0xbd1c39dd3e3b5242U, 0xbd60e774be5ae47eU, 0x3e57a289bcf30c35U,
  0x3d580aa0be655271U, 0xbeaf7bb0be4c3f23U, 0xbd9679d53f016b3cU, 0x3e01e33d3d66e4baU,
  0x3e1da8c5beb9adaeU, 0x3dbb87483d2527eaU, 0xbb8ef2e13e5d83ddU, 0xbde73b113e4ae416U,
  0xbe3e22f3bef974beU, 0x3bb752c9bd852b75U, 0x3d6768a7be7dc9bcU, 0xbe87dd34be8ce54eU,
  0xbe19b5953ebaa21aU, 0x3cdf1d38bdbd7506U, 0xbc220e28be9e6b22U, 0xbcbfdb8ebd6d8241U,
  0xbe0764f53e177a62U, 0xbe13a64b3e92d723U, 0xbe5f4e02bec0e5fdU, 0x3daa94acbe18f320U,
  0x3db5107fbec98f4eU, 0xbe13e7a2bec42876U, 0xbd88009f3e3dcbbcU, 0x3e73227b3d755429U,
  0xbe91f5c4be3894dcU, 0xbd269d4dbd4dd674U, 0xbe21ff793d6b1ccbU, 0xbcb120913e1f1a53U,
  0xbc62c79bbe2aac0aU, 0x3e2f59f63dadac51U, 0xbd1e7d0bbe67f90bU, 0xbd3ce154be192602U,
  0xbe2973123ef503b3U, 0x3e172ef93c6a7e2dU, 0xbe8f8299beaef28fU, 0x3d9058123dbe5d60U,
  0x3c1eef55be6450a4U, 0x3e5115a93de3fc33U, 0xbe481a8e3dcbdfe8U, 0x3d9a2b943df56e01U,
  0xbe3c9a00be369323U, 0xbe209d80bdda9a1fU, 0xbe8bb8343e255e80U, 0x3cad7a1c3d677165U,
  0xbb29312cbeba88bdU, 0xbb9626273ecb8009U, 0x3e72d500bee383bbU, 0x3e5baaee3e3a371eU,
  0xbdc8293a3e2099abU, 0xba9ce9babb9fb0dfU, 0xbdf32d07bbe8ff7cU, 0xbeb38759be08ca4dU,
  0xbe9121b3bd50ca4eU, 0xbe826d773d4245a0U, 0x3e8f0046bef253b1U, 0xbdeeed453ed2b62bU,
  0xbe3cbd4fbecf4b0eU, 0xbde32e9c3e89ad37U, 0xbe1049bf3e4c257eU, 0xbde66f6bbdb62864U,
  0xbe18551ebdf7c111U, 0xbed86de7be84006eU, 0xbefbc545be92f6bcU, 0xbe6436173c9f216bU,
  0x3eec5592bed5c067U, 0xbe4f4a1d3edcde7fU, 0xbeabdf33bee89f32U, 0xbe495c0d3e524fd9U,
  0x3e0dec0a3d5a2b28U, 0xbe83ef1fbe035434U, 0xbdcca753be6418f5U, 0xbf08ed96bed2857aU,
  0xbec19653be955e85U, 0xbe5b269fbd5c6132U, 0x3e93dd77bef5303dU, 0xbe08fe473f0b69dcU,
  0xbe6ec569bea9b278U, 0xbdf814503e549f40U, 0x3e3547ac3de56024U, 0xbe9ab1b8be36b07eU,
  0xbc52599abeb049e0U, 0xbeadd4a8be4e1302U, 0x3d9cbc32be8d6cfbU, 0xbe95b9463e60616aU,
  0x3cf33f403e183a85U, 0xbde9e7a53d4c56b0U, 0xbe8ac754bcf927d7U, 0xbd859cda3cc4cb93U,
  0xbe42fbdd3e1f05cfU, 0x3e1e87cc3e717d7dU, 0xbd88936cbe33d1ceU, 0xbe55df63beaeecd4U,
  0x3e2412cdbe4056d6U, 0xbdf508d53e8f9d32U, 0x3dbc0ecebbbeda77U, 0xbdd015f9bda0812dU,
  0xbe8c57353b6045caU, 0x3d8f125f3dc7b13aU, 0xbea0e4723e45d942U, 0x3e6cd86f3ea3446dU,
  0xbe893502be4f2d6aU, 0xbda5209dbe4af19eU, 0xbd0967fb3e0859c6U, 0x3c1884d2be4af0a4U,
  0xbf3b3a903edcf9e1U, 0x3ef18d7b3e4297e6U, 0xbdeb5d0b3ef3dd66U, 0x3ec3dae33e953ba6U,
  0xbe8008bb3e8bba2fU, 0xbdc3edbbbe83b3cbU, 0xbe393546bd8dca43U, 0x3e4703f23dd7edc1U,
  0x3e394b84bdaba4f6U, 0xbebe7283bd4780c1U, 0x3cd09ff23ecfee53U, 0x3cf100ff3bd1bc7aU,
  0x3c0ba7c3bdc72164U, 0x3ba74cdc3dd16874U, 0x3dca4fcb3b4343f1U, 0x3e59d4fcbc8716aeU,
  0x3ebf84e33d7b7b33U, 0xbc2d064dbe30605cU, 0xbed864be3e968ee7U, 0xbda19377be2cfe47U,
  0xbe8a06e83f04041fU, 0xbccb7dbf3dccd3faU, 0xbbc544f63e725b30U, 0x3dfb02a4bd0c54e8U,
  0xbd4606aabd72f6b6U, 0x3da98992bdc163e2U, 0x3e0b384c3e51b53cU, 0x3e131b4bbdcb6a57U,
  0xbe313d5d3e94b88dU, 0x3df402f5bcef3a52U, 0xbdbdc06e3e03ee00U, 0xbda9a0443daeee82U,
  0x3e85b58c3eacd782U, 0xbe054b2abc354417U, 0x3c1551ee3e4fc889U, 0x3dc25bacbcedc035U,
  0x3ec46e1b3e4833aeU, 0x3d8bccfb3decb63bU, 0xbe674a483ed023b7U, 0x3d9834e9bd6a1fc7U,
  0x3d46e1b53d74c4edU, 0xbdbc2ecebdcf2f66U, 0x3d85ff1b3e4f9e34U, 0xbb4505f13de295b8U,
  0xbdb2ceb53d0ab495U, 0x3e36097b3e0a2393U, 0x3eea600a3e2f32aeU, 0x3dd718183dcaa140U,
  0xbe51a7743e828e2aU, 0x3cfbb060bdb24a60U, 0xbda8da443e4e5e9fU, 0xbd487931be1a7990U,
  0x3c85d4253e5a3bf3U, 0x3cbe934c3d49a974U, 0xbd18cc74bc51bd5dU, 0x3e9edc2ebe06d550U,
  0x3ee196ff3e06c072U, 0x3d047d8c3dff65dfU, 0xbdcfcd4e3e6af8c3U, 0x3ddbda52bde463adU,
  0xbe19e0c83d92353dU, 0x3d85806bbda13be2U, 0xbd9abb4e3e662e61U, 0x3de181dcbc861770U,
  0xbe00f13fbe8d2b6bU, 0x3eb294f5bdb3da51U, 0x3eaa23593d458b29U, 0xbda4492c3e9ae40cU,
  0xbe6390273ea12e20U, 0x3e1bdac3be6c09e4U, 0xbea878d63e66a339U, 0x3e557288be1b06c8U,
  0x3e35d3843e622cddU, 0x3e085c70bdf81e3eU, 0xbe8b0887be5c9286U, 0x3ed65fbabc7fbfc6U,
  0x3d66ec283d341e06U, 0x3ce555623e91eda7U, 0xbdff10593eaac6c2U, 0x3caf61dbbe81f901U,
  0xbf07806e3e0d3907U, 0x3e6a0f3fbea0aa1dU, 0x3d8986413e7b5416U, 0x3e265d6cbe82b446U,
  0xbe9a2bdfbe9903feU, 0x3e937018be340e41U, 0xbdbb56e03d9d4197U, 0x3dbb7bde3e842351U,
  0xbc9d1be03e87482fU, 0x3d1d5ec5bdc5b439U, 0xbee9e4a53e78025dU, 0x3eab4855be990998U,
  0xbe38c3263da3abf2U, 0x3dd7beb2bca7cf1bU, 0xbe908430be6d6a34U, 0x3c5c19b0be68807dU,
  0xbdb1d6773df98d24U, 0x3d5799273e77e83dU, 0x3e973de33ead1a91U, 0xbe3c1d15bc10f6b4U,
  0xbe206ff63e0b7f76U, 0x3e9d7d6bbeda09c7U, 0xbda8897dbe171879U, 0x3d9ebc5abd83f4b8U,
  0xbe59b46fbe4890baU, 0xbdba55afbe86209aU, 0x3dc9ed793db3699dU, 0x3e701fb63ef67f14U,
  0x3e8e5fa73ec33ba8U, 0xbe88b5b9bdb3857fU, 0xbeb802ee3ee2652fU, 0x3e6a2ab0be5eb0e6U,
  0xbe3e9ecdbcfde6cfU, 0x3c0ec4a43d006580U, 0xbe3cb42bbe312746U, 0xbe3aefa7be85278dU,
  0x3d8de1e43ef66637U, 0x3e2ca7b53e8dbd17U, 0x3e9e97a23ed20bf2U, 0xbe75a943bd86ae33U,
  0xbf000bcc3ef9aa65U, 0x3eafe41dbe658e1cU, 0xbddf2883bce8f4efU, 0xbdb5e6fc3e2eb2d1U,
  0xbe131881bca1c7eeU, 0xbd878c61beafd1b7U, 0x3e6cd8893f188095U, 0x3e07f62f3db4b80fU,
  0x3e84230f3ec09122U, 0xbe0c23d9bd75a5e9U, 0xbeab84303f0cd780U, 0x3ebc1b57beb29f81U,
  0xbe2502473e077dffU, 0xbd9102983e106f93U, 0xbe4836353e49c72cU, 0xbcb86aa2bd95b25dU,
  0x3e395e873ec5acc7U, 0x3dea1539bc7468dcU, 0x3e55eb583f0bdffeU, 0xbe762d133be7256aU,
  0xbe994e6c3ed30344U, 0x3ea6826dbe846e58U, 0xbd837d04bd21fc87U, 0xbd2c424b3d950987U,
  0xbe767cfbbca9293fU, 0xbdb7270a3bf05117U, 0x3e1b8a093e27c411U, 0x3e1bf50abea80250U,
  0x3e0f9c113f016087U, 0x3d3c7c283da8cb9dU, 0xbe811c523e86cf33U, 0x3e9b4172beca0ba9U,
  0xbde06bdcbd4b93d2U, 0x3d642ec63da29a97U, 0xbe11ffecbe960dc5U, 0x3d03c18f3d92ac1bU,
  0x3e6e1f313d1d1279U, 0x3e1044c2be2e0609U, 0x3e3056303e83716fU, 0x3d9a7e453dda7feaU,
  0xbe3b1a2d3e2b14b0U, 0x3ea6ceaabeaf56ccU, 0xbe2923febdac49e7U, 0x3d9470613daa0c77U,
  0xbd16e655be6450b9U, 0xbd87ea153e149067U, 0x3ddb2282bda646a4U, 0xbdf19ed13de4db8dU,
  0x3ec103053d97235bU, 0x3d640fd73dc586f1U, 0xbecb99a53e39735bU, 0x3e835148be56e5c9U,
  0xbd9f18f13db80f8fU, 0x3e319e683e171f22U, 0x3cfa5754bd79e875U, 0xbdafff5bbd871c0dU,
  0xbd96b874bd019091U, 0xbdd1426c3ecacdacU, 0x3e9dd7bb3da6d22bU, 0x3e54d9433ed4c14cU,
  0xbf1524173e36b702U, 0x3d881be4be571608U, 0xbdec38e43e929bfeU, 0x3ea2e2743e002ad8U,
  0x3bd2391c3b9a633aU, 0xbda529663d968b12U, 0x3c00b0b13e36682dU, 0xbd8144973f077b57U,
  0x3e4e70513e9e69e7U, 0x3e3a29933ed76c7cU, 0xbf0261333e8b5cc3U, 0xbe01a09fbe070adfU,
  0x3cb31fa83e4e5693U, 0x3eaa92663d89ef00U, 0xbe29611f3ddf58a0U, 0xbcb999773cad9ab4U,
  0x3e2b77a73e9a4267U, 0x3d7c763e3f00f644U, 0x3d5d24023e548a70U, 0x3e402bee3df79041U,
  0xbeef688d3c961237U, 0xbe221d83bcb0fea8U, 0x3874db0abd7c1d8bU, 0x3eaeb735bd925503U,
  0xbd046db33e26a9b4U, 0xbcf9f4873e56a68aU, 0x3e03c8963e5917b4U, 0x3de4cdf23e9c6c52U,
  0xbb07722a3e52434eU, 0x3e9f6b503de7bea2U, 0xbebdcb78bcee7b86U, 0xbe55d48c3aa8aea4U,
  0xbe2742083cb497daU, 0x3e8d4705bde2de45U, 0x3e3896923e5f3d78U, 0x3e30c0db3de413e0U,
  0x3e8a4e283e53a5c5U, 0x3d5ee0063e11e916U, 0x3e967cc03d49bc3eU, 0x3e9e38493da03cc9U,
  0xbe9fc7673d1c0a11U, 0xbe847063bde66122U, 0xbe2a6919bccf7f96U, 0x3e80939cbd97dfd8U,
  0x3e939edbbd87ca9eU, 0x3d96738b3d634ac3U, 0x3dcd4edf3dfa54bbU, 0xbd7195d1be6a334eU,
  0x3e8048113d81b2d9U, 0x3e4072703e06dbd4U, 0xbe5a62a03ea42707U, 0xbea2430ebd928a9fU,
  0x3ce2c66cbe44d0b0U, 0x3ec4074bbd92cb9aU, 0x3e9be8623e557d8bU, 0x3d5564283dba6a07U,
  0x3e3c7de33df689f0U, 0x3c7e6de6bebae710U, 0x3e8988ec3e6a36b5U, 0x3d7e7c713e012706U,
  0xbe983eca3e92acd4U, 0xbe9ee49dbd4cec38U, 0xbdbb6741bdce766bU, 0x3ebd3a833d08d146U,
  0x3ecc83bb3dde850cU, 0x3de8920d3e31f0e3U, 0x3e6c4bcc3e47f520U, 0xbdce09e3be375f70U,
  0x3d6b3e973de79becU, 0x3dccb2a93e7aa1efU, 0xbea354d23e0ed63bU, 0xbe9e28e6be06fb52U,
  0xbd701f0ebe53e2d3U, 0x3e980b9c3e07daaeU, 0x3ec562893e4211fbU, 0x3e731c0a3e533d73U,
  0x3e0350b33e4e3776U, 0xbe584e5bbe3af290U, 0x3daca023be11e1acU, 0xbe466fcd3ded35beU,
  0xbddfe11b3d9b1c55U, 0xbe3db795bdf0ebecU, 0xbe5f2c50bd38e8d6U, 0xbd90a91f3e31d33dU,
  0xbe5d5f3a3d43d367U, 0x3e389589bd14420aU, 0xbdafff05bd72085eU, 0xbe3a4875be8eb04bU,
  0x3d7b3a03bdcf19e4U, 0xbe70b8c23e39a852U, 0xbe476b673d99a6ecU, 0xbcacabb4be4dc28aU,
  0xbe3ac520bd06594fU, 0x3d89294c3e3a00a1U, 0xbdf0a1d83d8e9da4U, 0x3d8ebb8f3db25889U,
  0xbe2010aebdf6eacbU, 0xbdc529b9bd08e1c7U, 0x3da2f8d6bd9dc576U, 0xbe5d78f53e90b26bU,
  0x3de94b203e10e894U, 0xbe435d12be0ac445U, 0xbe4ae964be0cba4eU, 0xbe78d4adbe14a2f2U,
  0xbd89da993d43a5c2U, 0x3e79ce073ebf0c02U, 0xbd15a15dbe120398U, 0xbe29c026bee08884U,
  0x3d3dfe21bde72f0aU, 0xbd41d01f3e8c685cU, 0xbd19e2253d9838f8U, 0x3d889e92be1507a5U,
  0xbe9ec68abe42d4b5U, 0xbd0022053dfb6904U, 0xbe779c533ebb2b7dU, 0x3dae28963dd46ec0U,
  0xbe9e948abe977e9cU, 0xbe09cd1fbeb5122aU, 0x3d29c375be09d295U, 0xbd3941483e8486d5U,
  0x3d2aef76be52f498U, 0x3e353a483d319a49U, 0xbec9cb113d19129aU, 0x3d9c1638bd8b5780U,
  0xbda8ea693e4012a4U, 0x3d9d3be4bcfdd6a6U, 0xbe9a8d3ebe5a2a77U, 0xbde16014bd7ebfbfU,
  0xbd839a1cbd2d5349U, 0xbd90f7d13dfe7c65U, 0xbd7e577c3c20cc56U, 0xbdb6278b3d638606U,
  0xbe966287bd2fc21eU, 0x3cc54406be39555bU, 0xbd2bd3f53daaa2ecU, 0x3e16a1b1bcd51317U,
  0xbe5a830e3c5133a6U, 0xbca7ca4fbde97993U, 0xbdd2518ebdb6a3b0U, 0x3d6f7c303c24c872U,
  0xbe2c8e883e2c0c72U, 0xbe0f77ca3d436022U, 0xbec1ef63be9742cdU, 0xbbcdf1edbe05fb6cU,
  0x3b47e7673c673282U, 0xbd40a070be55291bU, 0xbe9f4977be07612cU, 0xbd6fef313d899cbdU,
  0x3e1c469b3d37f71eU, 0xbd8059233ecbf49aU, 0x3e1c1242bdb848a9U, 0x3dcf11b7bdb4a2a8U,
  0xbd7d69afbe9dd3f0U, 0xbc3f4459bcd81034U, 0x3df5c95c3e7d21deU, 0x3d6701f0be2e5052U,
  0xbec07a0cbd8b2452U, 0xbd7922b33e252627U, 0x3e52d5113e295b71U, 0xbe3a3a3c3eaf79bfU,
  0x3cafaa1bbdbec3abU, 0x3e85863cbb01841eU, 0xbdb45bcdbee15ba4U, 0xbdedcac83d294afeU,
  0x3e271ef63e3b8c91U, 0x3de61579bd8ee0ddU, 0xbd3b14b1bde292f5U, 0xbe76adb43e0f283aU,
  0x3cc28357ba205c21U, 0xbe1e2f8d3e8aec1eU, 0x3daacd64be0a4b43U, 0x3ea32736bdcd292eU,
  0xbe92653ebe8db854U, 0xbcf591d03dff3d42U, 0x3e9756e43d8efaa5U, 0x3e232aca3db2dc76U,
  0xbbcb12b4bc6fef4eU, 0xbe4023df3e16e9b0U, 0x3dbdc477be224866U, 0xbdd4474d3e56dca5U,
  0x3e7c1b9bbe7094a0U, 0x3e8c94bfbe38263fU, 0x3d6810abbd976ab0U, 0xbc961a0e3e3e5125U,
  0x3e7def02be119021U, 0x3e39372c3c9635f8U, 0xbd4c61283e802207U, 0xbcdadf8e3ea643b5U,
  0x3e54b850bd990ae3U, 0xbe4fdab83e606699U, 0x3e3a7e95be847e26U, 0x3e593728be772354U,
  0x3c8d5dcebe1b6e64U, 0xbdfe57fa3d81de19U, 0x3ed630b4bcb2cf81U, 0x3e4879fd3e3e1dbaU,
  0x3cc1e88b3e70ff4bU, 0xbe3ab42d3e98df4aU, 0x3e5cfeccbe6db107U, 0xbe0db0fc3e2d5ba3U,
  0x3df5ad1fbe811f51U, 0xbb1c0c67bdf80e41U, 0xbda03fcabe321cb8U, 0xbe5332b73d336a00U,
  0x3efd416dbcbec887U, 0x3e24bd7f3d4aa246U, 0x3cba7ed03e492f38U, 0xbe8a171a3de6164cU,
  0x3de07eeebf1dcebbU, 0xbe382a4ebba06c0cU, 0x3db88f6dbd4f0a5fU, 0xbdbae48cbdfc7fa0U,
  0x3e0b2e76be0971ceU, 0xbec47a20bc92a897U, 0x3ed759f2bdcdc539U, 0x3d980dd6be169695U,
  0x3d9c52013e2ce44dU, 0xbdd3d277be04ba39U, 0x3d8c3c0bbf23d9bbU, 0xbe8e75d83d528a9eU,
  0xbe6db192bd9b178eU, 0xbe729cc6bdb5b224U, 0x3e1be9213e51f38aU, 0xbe549c98bda129a1U,
  0x3e82d301be8e0e8eU, 0xbda05261becbcf8fU, 0x3d6658ddbd4b282dU, 0xbc2f47da3c20ae16U,
  0x3d701e23beac6686U, 0xbded17e93d5cd84bU, 0xbea9af5a3d9ab322U, 0x3d4805c7be420f6fU,
  0x3dacdb633e6730a7U, 0xbb4fe528bd9a8b0aU, 0x3dfd63ebbec8922eU, 0xbe3b4095bed4705dU,
  0xbe104e19bd817989U, 0x3cc400303e5521d4U, 0xbd887f13be018d8bU, 0x3e823e7fbce051ccU,
  0xbe7aebb33da05a4eU, 0x3dfdb9ecbcf97691U, 0x3e224bb13e391fb6U, 0x3d6538d0bdf58350U,
  0x3d46dc16be02a8eeU, 0xbe475f0abece64efU, 0x3d8171d43dced99cU, 0x3e851dcdbd10596eU,
  0x3d3cd3483e671161U, 0x3ec0a221bd574600U, 0x3c80c35abce01318U, 0x3c8e25b53b8ad8f0U,
  0x3e5ce1cb3e1cfcc6U, 0x3d2fed11be1dfc1eU, 0xbdb55d29be74ffdcU, 0xbe15b166bedfc429U,
  0xbd0c6bec3d103840U, 0x3e93ce78bd9adec8U, 0x3dbaea683ebedd95U, 0x3eb59797bda7b892U,
  0x3e0394c0bc5ea82eU, 0xbd66a97bbe0e56edU, 0x3d7d22833d337a70U, 0xbe122729bddf3de9U,
  0xbe5cdc5dbe62e205U, 0xbe84d37cbe91298eU, 0xbcb2d5f4be5ff1e8U, 0x3e8b6b7fbe6f5c1dU,
  0x3cc8037e3e6793bbU, 0x3e8ec4b3bc84a42bU, 0x3e712d333df8b606U, 0x3ce478fdbe14abf9U,
  0xbde535e23c51fe59U, 0xbdf64601be5da990U, 0xbec8b587be063a7bU, 0xbe58e60b3e554cfaU,
  0xbb10250dbdf6d2acU, 0x3d946e1ebe397a6cU, 0xbcd1d0b13d09232aU, 0x3eb6e0043cac50c3U,
  0x3ead6fd73e78747bU, 0xbe2646a73d5c44d4U, 0xbe5d36963e1378fdU, 0xbe579640bdb0aa4dU,
  0xbea0b7c03d8cb562U, 0xbea449983e947250U, 0x3e1c9ccfbdb6922fU, 0x3d9a0bad3e055ffdU,
  0x3e03978bbc9c0e1fU, 0x3e7fb9b1be019f48U, 0x3e84ee923c9e813dU, 0xbd91c94c3ddd678aU,
  0xbe95265c3dbaf3a8U, 0xbd7c3c5ebc703fa3U, 0xbd4a62f83e11e95aU, 0xbecd157f3e9b1f37U,
  0x3e42ee50beae7d93U, 0x3d986bb23d841266U, 0x3dee8f9bbd1a6f03U, 0x3e869bc1bc0a8116U,
  0x3ed512c5bdbb40aeU, 0xbebadee43e0f790cU, 0xbdca45663dce03bbU, 0xbe002480bda0f27dU,
  0xbe1896483df79164U, 0xbe108d383e9e9d4fU, 0x3dd6642dbe03362dU, 0x3db657d0bd114c87U,
  0x3e2a48223d2b41c7U, 0x3df73315be3ca11fU, 0x3eee6349bdb2e23dU, 0xbe871de1bda21252U,
  0xbde2d8c93c0d6ddcU, 0xbdeb795fbd663866U, 0x3b59d71b3e80a518U, 0xbe3a8e223e9f515bU,
  0x3dda84023d4a56a2U, 0x3e34013ebd220215U, 0xbd82eeeabe086312U, 0x3d3e8479be29c8b8U,
  0x3ea5e6d73d332e58U, 0xbed2ca573e2495fbU, 0xbdcf3210be0c9252U, 0x3e82e7bb3dbf7fe4U,
  0x3e50bca23ec0212cU, 0xbd2519bb3ea4d871U, 0xbc022f0bbd32baecU, 0x3e7133c13e129a96U,
  0xbd47b646bedcea9bU, 0x3d9edf60bf00eaebU, 0x3df8028fbde8efa8U, 0xbe806e3f3ec2f48cU,
  0x3d90254abe692551U, 0x3f03f4823d906d24U, 0x3e430ef73e316603U, 0xbc0232163e882f5fU,
  0xbe9918ed3ded8a4eU, 0x3ecc1b653e52b173U, 0x3d2edb85bf15129dU, 0x3da0dd64bf0b49adU,
  0x3df022223e12ad0aU, 0xbeeb26403ed9ae40U, 0x3da21fccbeb19d8bU, 0x3ea83591bcb01c22U,
  0x3ec8a11e3e957544U, 0xbe1add753e3e7dd9U, 0xbeb2d5e13d5a589aU, 0x3eaa9c163eaa81f4U,
  0x3e8e1745bf1e6467U, 0x3d0a0f99befcf43dU, 0xbcdd74bc3e6c8b10U, 0xbf110ebb3f37304dU,
  0x3e5b78c5beb78e8cU, 0x3e4a02483d74beefU, 0x3f31288a3e603bfeU, 0xbe3a052f3e9d7a56U,
  0xbec9cfbfbe981165U, 0x3ef3487e3f0258ecU, 0xbd8e72bb3dc9bd53U, 0x3c5d7a4cbd9cff2eU,
  0x3d5b33febd0fc520U, 0xbda089d1bc990a6dU, 0x3d2f014d3d99790bU, 0x3d4fc81abdcef0d8U,
  0x3db5b171bd6366c2U, 0xbd08b6f13f06a385U, 0x3db76fcf3e48aff7U, 0xbd9f3f0b3e15e974U,
  0x3b7a9eaf3d6f166eU, 0x3e2820d2be03729eU, 0x3e10c982be7fdc27U, 0xbe3b39083d9f2193U,
  0x3db62c4ebdf87245U, 0x3ca351873c8ad629U, 0x3dfbe266bc96512dU, 0xbd3e53153dd5e83fU,
  0x3c97e6553d0873daU, 0xbe9d6c373e0628b0U, 0x3d4c90af3b34e0dbU, 0x3ccf9b0a3dd53ec1U,
  0x3f1d4619be94e5ceU, 0xbe7d35b1be49c93eU, 0x3d4f380cbec6d43aU, 0xbea85cbbbde53b85U,
  0x3e80f78abd9fd711U, 0x3a33eb2b3eafc4b0U, 0x3cac02fcbd58fbfcU, 0xbecc4ca6be200f0bU,
  0xbe14bed73e4b50ffU, 0x3e9d5d4ebe1dd095U, 0xbe306af5bc137e34U, 0x3ec5fa423e30ba9fU,
  0x3d2bb53f3e579b76U, 0x3e229ce43dbb5f01U, 0xbe344e57bce7deedU, 0xbe2bc5b13e22429bU,
  0xbe7a851c3de1f451U, 0x3cd66d8c3e83bd40U, 0xbdc1332339fc6690U, 0x3e2ae70cbccac45dU,
  0x3e0fabeebe227e02U, 0xbbabd570bc9f0ce5U, 0x3c3452f8be280b7bU, 0xbd7592dabc5539bfU,
  0xbd4437babc738fbbU, 0xbd5808983e89eae2U, 0xbe1689483d8c2c3cU, 0xbd406821bd6bfd4bU,
  0x3d9fb2f1be2f4becU, 0x3de1314a3c5a24dbU, 0x3e2c4ad0be6705f9U, 0xbe4f42783a32577fU,
  0xbc002fc6bdd4ad8aU, 0xbcd744223e09eaa5U, 0x3ded39a23dca398dU, 0xbc4c91b23e09af4aU,
  0xbe333e2dbcd2e0c6U, 0xbdeeac163dfbbff8U, 0xbc320565be79c312U, 0x3e1f4a0b3d35b40dU,
  0x3e1ee58ebdc45ea5U, 0xbdd9edeb3e093ddeU, 0x3cdcf6e1be0532faU, 0x3d5cd021bc5c2120U,
  0x3dc2c1363dc4e689U, 0x3c13ae323df5f547U, 0xbea6d3503c98a37bU, 0xbd9b493abcaf5090U,
  0xbda8964cbeaa2a3dU, 0x3e18c4f4bda13207U, 0x3e15f5adbe4776f3U, 0x3e6e17913e4e43d3U,
  0x3cf257603c73cd9eU, 0x3df2cb1d3d11f78aU, 0xbddacef53e844f28U, 0xbe0f7f3ebd9df7ccU,
  0xbe93fbba3df11960U, 0xbd0add183e8b23cdU, 0xbd2e556fbe215208U, 0x3e112d333cd3e1d7U,
  0x3bc3732dbe281690U, 0x3e2b72733e1fcbd4U, 0x3dc1cedd3be9c27dU, 0xbde9415cbe761e7aU,
  0xbc30c5913e7f68bfU, 0xbe522bd4be58abe9U, 0xbdc5e75e3d96edb2U, 0x3e1e5ebb3e410f62U,
  0xbe059037be625aa8U, 0x3d95b7a63e3c4c6bU, 0x3e3efab2bea20e54U, 0x3daec30b3d3d1403U,
  0x3db281693d0436c1U, 0xbe397edabe6d4023U, 0x3dd3d6f43e249e64U, 0xbdd2cfc1bd3c09dbU,
  0xbb92c4f73e38742eU, 0x3dcd511a3e031f6aU, 0xbdc70c68bdd97b4aU, 0xbdf2a4ef3d5679a1U,
  0x3e6bb7aebe84973eU, 0x3e7a04f03db947daU, 0x3de929f5be235fd4U, 0xbdadc5febe1090f6U,
  0x3e014707bd4b68f1U, 0xbe33d941bdf91c95U, 0x3c2ebba33e2a904bU, 0x3e416bbe3d696af5U,
  0xbde66c3abe6da775U, 0xbd6aff433dece020U, 0x3ddb7eae3d7a7fdfU, 0x3ebc96f7bd4ff34aU,
  0x3df93896be689c3dU, 0xbe44f027bdaa8bfdU, 0xbd7bd017bea7bcc4U, 0x3dcb95c5be4c58edU,
  0x3e3627973e0eefe1U, 0x3dcc65e73ce7e0feU, 0x3c5f9f48be0e934dU, 0x3d2b2b15bcd31cb4U,
  0x3cb16f7b3e84c5c6U, 0x3ebe57883d87764aU, 0x3cb130babe5b0b24U, 0xbe5fc3f9bd0a6183U,
  0xbe3a642dbec1e4bbU, 0x3e863946be8b7ebbU, 0x3e098af53e07f6b4U, 0x3e83e1d3bc72f91aU,
  0x3dbaf74abd676a63U, 0x3df5229ebb6dbb47U, 0x3ced1de73ee309d6U, 0x3e5e077e3e67e2e8U,
  0x3d0eac1dbd91e4beU, 0xbec25d773e1ffd6fU, 0xbe9c60debe4687e0U, 0xbbef565ebd8f2332U,
  0x3e525ed43a857a82U, 0x3e9522a13e172172U, 0x3df702523d853edaU, 0x3c46312fbd8a0fe4U,
  0xbe4374b13f14a483U, 0x3da6655c3e4492f4U, 0x3e0323dbbd8170a0U, 0xbe72de7d3e588fe4U,
  0xbed5aea2be114855U, 0xbd3621b7be0cceaeU, 0x3e6bede4bbca770cU, 0x3d9a0e9a3e061d0bU,
  0x3edd1dd73d855219U, 0x3d8b25f83d83a360U, 0xbeac9b2c3e8f5f40U, 0xbdec93fd3e97f7e7U,
  0xbd90dd01bdad55cfU, 0xbd9e94c53e7a575dU, 0xbe8f63653e0dd63cU, 0xbe90d418bddc7ffaU,
  0x3ed0ce3cbe66e586U, 0x3e09b97a3dcf6fa4U, 0x3ea5963e3e212677U, 0xbe222b6ebcbfcca5U,
  0xbeaf9aaa3cf1ef8bU, 0xbe7ad4cb3dbec9fbU, 0xbda80e81be1ecff0U, 0xbe8a45443e1aa2aeU,
  0x3d6b518f3e411522U, 0xbe20b8f6bdbfaf5aU, 0x3ef48f4bbea1563dU, 0x3eb44437b9cac1afU,
  0x3e8ee97fbe660a97U, 0xbebd554cbcb4e32eU, 0xbd580342be6e0af6U, 0xbee5e58e3dcd0289U,
  0xbe56e890be7719c7U, 0xbeb7f1d5bd802762U, 0x3ea61ef73e149d48U, 0xbd19500ebc7e4de8U,
  0x3eef6530be1c966cU, 0x3ec995e93d2940a8U, 0x3d58501dbe91c531U, 0xbec548933c0623aeU,
  0xbd6f02e73ace7cabU, 0xbed04e633e0c18fcU, 0xbe11b77dbe6dcc0fU, 0xbe31c3d03cd967a9U,
  0x3effc91c3d499bfaU, 0x3d34b6e63d89247fU, 0x3ef911833d5523f5U, 0x3e5a08973d0af620U,
  0x3dcb6320bf0189cdU, 0xbecfadde3e0e84aeU, 0xbd7a985b3e0f6f3aU, 0xbe9014243e232ad0U,
  0x3b4569cbbe016368U, 0xbe99161abe43aa5fU, 0x3edc09573da8066dU, 0x3e2bfe8dbe4ff817U,
  0x3d9f7dc23d7b4303U, 0x3b36b6503e13a47eU, 0x3d9d7f66bec8a392U, 0xbece3ce33dc57543U,
  0xbd2608893deddc66U, 0xbbf0b8d03e816988U, 0x3e203162be80d7c7U, 0xbdc98cedbe461e5fU,
  0x3ed07da73dc2dfd6U, 0x3d6cb643be1d04a8U, 0xbc31f3bd3e119ff9U, 0x3e0d7e0b3e1ae14eU,
  0x3d1c420dbeaf5cceU, 0xbe0fb86c3dc8d6a8U, 0x3ddb249a3d8e35c7U, 0x3da6f8f33d975bceU,
  0x3e116de4beaf6b29U, 0xbd7ec693bda99b11U, 0x3eab6d423dd0b393U, 0x3e4efa67be039914U,
  0xbe8f94123df6cb22U, 0x3ee3c4ba3ccd58b4U, 0xbd750954beb01ebeU, 0xbe020316bdaa5560U,
  0x3ea022983e941d9bU, 0x3d4b21bd3cc3b7eeU, 0x3e70002cbda2a90cU, 0x3e9acf843d892d90U,
  0x3e97e309bdceeea5U, 0x3e21d17bbe7bb3afU, 0xbde91df0bc333571U, 0x3e841df93e222fccU,
  0xbd1ed6dcbec5210bU, 0xbe2b3b4b3bd81f66U, 0x3e5550ab3ecb9060U, 0x3e10dad33d24d47cU,
  0x3e868e8b3ca5be8fU, 0x3e6675553d697ebfU, 0x3d9fdd6cbe65db02U, 0x3de5118abeb0dc79U,
  0xbe1a9930bd058393U, 0x3e3242303e60de0dU, 0xbe66edc2beb11358U, 0x3d71092e3e1c280bU,
  0x3e059a5c3eeac92fU, 0x3ddf4be43e6d584dU, 0x3e32b4123e95f1e7U, 0xbdfeca3d3d4b283eU,
  0xbe9ccd85be56fbd1U, 0x3e2e12abbee1f9c4U, 0xbd1c994bbe33f888U, 0x3d95850f3e77ee8cU,
  0xbe7f9ab1bd20da15U, 0xbd245a9c3d9dfdb5U, 0x3df221f43f1c1681U, 0x3e1c5cd03e375525U,
  0x3ea2781c3ee2848cU, 0xbeae95c4bd13c883U, 0xbf1c55ccbe3fff27U, 0xbc87933ebea70592U,
  0x3d14db59becbc900U, 0x3e1d96c73e5e8dd5U, 0xbe7d2e8d3e11dd92U, 0x3ca4d8273d940510U,
  0x3e3626573eb2b334U, 0x3e232b873d4940ebU, 0x3e5ddac03ef51374U, 0xbecd27d0be1634b4U,
  0xbf0d8d2bbe59d832U, 0xbd82e539be46aaadU, 0x3c6001e1becb35f2U, 0x3e6bdc813c54bf40U,
  0xbe8594f8bb69ead6U, 0xbccafed23dfa6401U, 0x3e98c55c3e9d87f6U, 0x3e8493993cf79fd3U,
  0x3cf1b0e53eff1e15U, 0xbef9c9adbe2f25a4U, 0xbedf608a3ce815ffU, 0xbe4d51fd3cb6994cU,
  0xbde73eb9bea3abb2U, 0x3ecb166ebdbd4490U, 0xbd6a147fbe047962U, 0xbd75421a3e13bc5bU,
  0xbe97df463d07abaeU, 0x3c9d94e7bc528264U, 0xbc81442dbc831002U, 0x3e5cbac6bde9b700U,
  0x3d8797253d979df6U, 0xbcabe209bc1c359aU, 0xbdf43547bdef7c6fU, 0xbc04562c3d2a8f25U,
  0x3e024038be5d3152U, 0xbe42f92a3d890a78U, 0xbcd3505a3c181cc1U, 0xbdc2c0d7bceed679U,
  0x3aeaadafbe956535U, 0xbca165743d338ecaU, 0x3d01ebd4bcd2a4c7U, 0x3e166bdabd39a7d1U,
  0x3dfc0039bd7e7b93U, 0x3b9b262e3b887a1aU, 0x3ea6ae85bf05b8d7U, 0xbee1bb2c3eebb18fU,
  0x3e826a7f3d239a4aU, 0xbe8697d1be823712U, 0xbdf107b7bf2e1a35U, 0xbd3b94253e8941b9U,
  0x3dd954583d9c897fU, 0x3d6738d53d1a48f9U, 0x3ee28d85befa9629U, 0xbcbb7e3b3ce549a5U,
  0x3ebdf05bbf3942b2U, 0xbf30bf953ee675edU, 0x3c3bad713e0f9f1dU, 0xbe443d18be9944f9U,
  0xbdcb1140beee8ee1U, 0xbd9a53c23edcfcc7U, 0x3e94715dbd380d67U, 0x3e3eea0b3d3a8f13U,
  0x3eae1f9dbe92abfaU, 0xbe0bb1743e257387U, 0x3f399734beca5c25U, 0xbed9941d3ea42417U,
  0x3d42da1d3e824461U, 0xbec89815be2cd9f6U, 0x3e4fbd26bdbba7e2U, 0xbdc1f99f3e742fd6U,
  0x3ead531b3d9e61c5U, 0x3dfb6619bde7d6d1U, 0x3ea36a81be5e9e90U, 0x3d0fb6f93e6eb585U,
  0x3e8e85433d8d9078U, 0xbde5f4d9bea53713U, 0x3d942fc1bdc60ef6U, 0xbec13161bd9c19ffU,
  0x3e2b71623e294277U, 0x3ded3d04be3334a8U, 0x3e32d0dd3daac8daU, 0x3db75bde3dd345a1U,
  0x3e9693be3dc38f6bU, 0x3e6082753c92ad48U, 0x3ec9b7e13ea5aff3U, 0xbdfa0c9fbedb26b8U,
  0x3e36afe6be6d9c71U, 0xbeaa5917bea31248U, 0x3ed06b273eaf3fa7U, 0xbe7258d8bd91bbd0U,
  0x3e7d930fbd03a50cU, 0x3d4c81063ea46bdbU, 0x3f106ac0bd4785f5U, 0x3e4aa01ebe77b380U,
  0x3edb6dc43e8fae8eU, 0xbd12689cbec8e704U, 0xbdce503bbea00ee2U, 0xbe9d7a0cbed97620U,
  0x3f0853953f0cd4abU, 0xbe838d693e78f9d7U, 0x3e83d315be7cd011U, 0xbcf12c7f3e428eecU,
  0x3ed90a0e3db3adf3U, 0x3d2c1408bd5692ecU, 0x3e92a8303e3a458dU, 0x3e1b2d58be533108U,
  0xbe586c69be318004U, 0xbe5e24a6bee15e60U, 0x3e92a79b3efc874aU, 0xbe4c99393e9ae706U,
  0x3e877157bee71636U, 0xbd348d0c3eb04100U, 0x3e99d0113e906986U, 0x3defd1793e08c26cU,
  0x3e1350af3e4b35ccU, 0x3d9cbf3dbeb325abU, 0xbdfcb6813df13d89U, 0x3db266ecbe2319b9U,
  0x3e76bf1a3eeead1eU, 0xbe12ee703e595d90U, 0x3d907fc6bf046c84U, 0x3d3ec8513e0822fcU,
  0x3e1de9b53ed9beafU, 0xbdaea6bb3e3cd9a9U, 0xbd93c85e3ea7e16aU, 0xbd3e7d23bea1d9e0U,
  0x3d0fa4a43e57f3c2U, 0x3e28eb5ebd66b450U, 0x3e37e4923e6628daU, 0xbe95d9bb3e7eac3bU,
  0xbd97ed1abed52f77U, 0x3cdc3a723e4859b8U, 0x3db345d93f1f8152U, 0xbeacf0e23dd3a423U,
  0xbe35a8cc3e9aa5f0U, 0x3d994c1ebdce110cU, 0xbe45c69b3e0a1a8bU, 0x3ea893f3bdda1effU,
  0xbe1fc6de3e570a95U, 0xbe8b24e73dc093ecU, 0xbe3e4932becc757cU, 0x3d5ac0013d8eae6dU,
  0x3e36826d3f0095d9U, 0xbf1ac624bcea7370U, 0xbed522c53ea8ca5fU, 0x3de46fabbdcfa018U,
  0xbe3bfceebc483385U, 0x3e8c99c43da02aa7U, 0xbe7083613eae9f2bU, 0xbe345049bd4cc611U,
  0xbe862ba8be8f56a5U, 0xbdb1210b3d77419cU, 0x3d83b5b43e7f6ab4U, 0xbeec913fbe5b1c1dU,
  0xbebc2bae3ed6e97aU, 0x3de11e733cbd9402U, 0xbdfdd2dfbe4096baU, 0x3e97e4f23de3fae4U,
  0xbe5d3d5a3ed37b21U, 0x3d92ac50be2c7996U, 0xbe80df95bec211a5U, 0xbdc4388dbdab67a7U,
  0x3e2157473ebe955cU, 0xbed8bc1dbec9f867U, 0xbe5924203eafd7d3U, 0x3c955d713cc7bfecU,
  0x3d60f66fbe5e195aU, 0x3e110e623e9af7b9U, 0xbe18ea763ecaa65eU, 0x3d8b8f613c73b4ebU,
  0x3b290806be5fc43eU, 0x3c5d1078bca1135eU, 0xbd8eff7a3e93b1c2U, 0xbe9ed555bf087585U,
  0xbe7158313e8f7abbU, 0x3e578fc1bde6a312U, 0x3e8c2bcabe9f9747U, 0x3e9471a03ed3324cU,
  0xbcf154a73e9375c2U, 0x3e9ee6ffbe0cf72dU, 0xbe747bacbd0de2bdU, 0x3df4059dbda1ac7cU,
  0xbe786cd43ea6fefeU, 0xbdd46676bf13a3f1U, 0xbe57e14fbde179cdU, 0xbcd4c60dbe71a67cU,
  0x3ea20617be5c267cU, 0x3e7f5dc73ef4faf1U, 0x3d1fce513ede1a93U, 0x3f00bdb33d645bcbU,
  0xbea7f0713d33d937U, 0xbda3f250be0aae32U, 0xbe927b793e5717cbU, 0xbe2941a2be4daad4U,
  0x3d8e0084bee47968U, 0x3d358aecbded8dd2U, 0x3e77a6e1be4a87e2U, 0x3ec5f9b73ed0e008U,
  0x3cc274e23e8deac7U, 0x3f2b54443d620127U, 0xbea8e5823ce6ecfbU, 0xbdd7c61fbe0a9557U,
  0xbcf8b1723e449e18U, 0xbc2fda0c3bb76c33U, 0x3dae32d2becfb9d2U, 0x3e1aa478bcbc554bU,
  0x3e1ec0f6be3aaba1U, 0x3e9605503e6d4e79U, 0xbb6ad3743ed1a4ffU, 0x3f0b96dabdacedf0U,
  0xbf00aab13d4df7f3U, 0xbd509342be250f73U, 0x3c262754bbe63b40U, 0xbb8f2be03ec9c429U,
  0x3da2ec4bbed4783bU, 0x3e1a3011bd070107U, 0xbdc49785be42e67dU, 0x3eaf0d903e2f71d0U,
  0x3d36897e3ea7f361U, 0x3f0387d73d4d079dU, 0xbebc94c33dfc2158U, 0xbcc6de40bd136dafU,
  0x3bf35defbc479537U, 0x3cda2a533e3aed11U, 0x3e059650bedc86d6U, 0x3d985868bdcee6b8U,
  0xbe564c01bea6dabeU, 0x3e8c5e5e3e961f1fU, 0xbd61245abd818993U, 0x3e38842b3d788597U,
  0xbebc656e3e22f734U, 0xbd230f52be1353b3U, 0xbc347a55be360067U, 0xbdc847b23dd6aebfU,
  0x3eb58da0bea349f0U, 0xbc86aed2be6b6096U, 0x3cda77a7be8a99f4U, 0x3e6ba20f3da83534U,
  0xbe10621cbe859ed4U, 0xbcd2f7eb3c645b57U, 0x385b6b403e448423U, 0xbba21a14bd6117d9U,
  0x3ddb1b15bd94fc5cU, 0xbe0296bb3da6a91cU, 0x3eb77a0bbeb430f0U, 0xbd54219cbdc79d2bU,
  0xbd6237a7be807549U, 0xbdd2259e3c5300a2U, 0xbe0e3aa9be1ecb40U, 0xbea823173df1e7d2U,
  0x3e4768003eaf0e30U, 0x3dc83ac1bdfd7b31U, 0x3e64632cbd597a27U, 0xbe96fad23b083030U,
  0x3ef512cabe050e92U, 0xbd580d2c3d9cee43U, 0xbe23ff02be9f6e07U, 0xbcb363f9be21aedfU,
  0x3d3d60713e82dbd8U, 0xbed74c583e1114bbU, 0x3e6bcb763d5fa0c2U, 0x3daf41eabe0c129fU,
  0x3e8df7bcbe486479U, 0xbe939aeb3e04adf3U, 0x3eeecac93da0dfe9U, 0xbd881ea83d9dfcd6U,
  0xbec412d5bda50bb6U, 0x3d0e20d0bed97ffcU, 0x3ddda1303ed7dd7eU, 0x3c6854c93e059d7fU,
  0x3e2be396bcb51183U, 0x3e929e39be65cbacU, 0x3eac7ddc3df0db25U, 0xbe5f80b73e33eaa8U,
  0x3eb5ae023d6afec3U, 0x3c0b63bc3ddf86b8U, 0xbdfd82b03e1d5546U, 0xbd740828beb0cb34U,
  0x3ce07d1d3ede6d64U, 0x3e83c2833d2bac2aU, 0x3e588734be006ef2U, 0x3ec644c1bdff188eU,
  0x3e08dc0bbe34d42eU, 0xbd1b38863d589dfaU, 0x3ecd20f03e189046U, 0x3d4801743e34e677U,
  0xbe1459b03e91a441U, 0xbe12ec3fbea7ac2eU, 0xbd4167ca3ea87630U, 0x3e422e5bbca08a5eU,
  0x3e329cce3dd46617U, 0x3e7bb9d3bdfca0e3U, 0x3d13ebdebef85a32U, 0x3dc71f6dbd8aa906U,
  0x3ea612ee3e73b348U, 0x3cf336553e9549d0U, 0xbe6df2963e49154bU, 0xbe1579e7bee841d7U,
  0xbe16c4113e886e9eU, 0x3e614ed03dc4e00eU, 0xbcddddb63e393db1U, 0x3ea275503d42d3a6U,
  0x3e325450be6a4bb2U, 0x3e1ede28bd2f6168U, 0x3e2aa72bbdf34fffU, 0xbe5baf2a3e645b85U,
  0x3e3588d83d84bf94U, 0xbd649608bdbb3d2aU, 0xbdcf6a45bdb55979U, 0xbd6954ad3e4badd9U,
  0x3d9c1ef23daba51fU, 0x3cd1b86e3daea72eU, 0xbd259016bd1a75a6U, 0xbe38c340bda5d41fU,
  0x3e16a168bdfcce89U, 0xbe45368d3d79cf84U, 0x3e516f783d4c7fabU, 0x3e05aba7bda21c45U,
  0xbcc55d81bd1be341U, 0xbd76eacb3dc4a8beU, 0xbd2039e73da63535U, 0x3dfa90823dd23b50U,
  0x3d96922abcade1b9U, 0xbe975d7abc222217U, 0x3da603afbe969555U, 0xbeae8b253e5bda81U,
  0x3d2503db3e21b5a9U, 0xbd2380bd3dfd47abU, 0xbded31163ca1dd73U, 0x3dc801413c2758bbU,
  0x3d0b1fe3bdaa98bbU, 0x3e70136f3dc5314fU, 0x3d9269dd3c7af3c1U, 0xbdc418083d54cbacU,
  0xbe5d1d6b3e29a9d8U, 0xbc618f3ebd1c673dU, 0xbe3910f43dc6f4a4U, 0xbd3c49133cbe3a90U,
  0xbd819cc63e7b53a1U, 0x3e8c31483d1b992bU, 0xba822272bdafb7ceU, 0x3d94941cbe2dd2fcU,
  0x3c952ad63e8f699eU, 0x3e130bd83e243da5U, 0x3e9df1593e90a6a3U, 0x3dea2b3abcccbde8U,
  0xbddf83513e8f891dU, 0x3e96ca1fbdab57c9U, 0x3e167340be135486U, 0x3c960c833eb5ec55U,
  0xbd1bf4fd3dd90dcaU, 0xbe5055f23c663927U, 0xbe760fc53ee81d77U, 0x3d8e63983e1ef3faU,
  0x3e2161ed3e922448U, 0xbd2bfec5bd98e617U, 0xbe0a6e1d3e6f6d71U, 0xbc95c70f3d96aa72U,
  0x3d25413fbe0ef64dU, 0xbb680eb33e282af4U, 0xbc9cf97a3cd93091U, 0xbd0051763da05ef9U,
  0x3c8faa8c3dfe4596U, 0xbcf7ea90be0944c3U, 0x3e0477023e9835a6U, 0xbd7268f43ddb696fU,
  0x3d95ac883d4d0071U, 0x3cf9060a3d4b8366U, 0x3c9437e63e84cb81U, 0xbb7342abbd3c00b9U,
  0xbdf5ae483decd927U, 0xbe8b5e21bd86b32aU, 0x3e51e1ca3ddccb01U, 0x3e1f8b93be93754dU,
  0xbcf4ab2d3e234524U, 0x3dc106cb3e650b34U, 0xbe2ef137bd99ebe9U, 0xbae99f6e3c96b6acU,
  0x3df0f3933e81732aU, 0x3dfbd7b3be9f56dfU, 0xbe89f76f3d5c8552U, 0xbe359531bdc5dde0U,
  0x3d2a19f1bdc6075aU, 0x3decf594be48de00U, 0x3c09d6b1bb95bbc2U, 0x3b3bd72d3e29efc5U,
  0xbe9a8caabe46c6daU, 0xbe7fdecabc8e5138U, 0x3de6d4443dfee9bbU, 0x3e973483be2d7198U,
  0xbf034bfc3e493fa3U, 0xbd738e843d9307f9U, 0xbd5a16d4be819d05U, 0x3bef122abe4f2734U,
  0xbd9576c5be01ad46U, 0xbd9284e8be146c23U, 0xbed8a39cbea8aecaU, 0xbeffdc62be00e5daU,
  0xbe53603a3df03b34U, 0x3d7a61b6bd60c7deU, 0xbef7baf73ec5eed4U, 0x3ddacdb13e14ad22U,
  0xbd1908d5bf06f3ebU, 0x3e33dce0bed68d86U, 0x3d7d85ebbe83eb68U, 0xbd54d5dbbe63da0aU,
  0xbf1ab8e1be3d814aU, 0xbef0d8f73e483fdfU, 0xbe5544733e53fc7dU, 0x3e972db5bd7a178bU,
  0xbdda93003f06bb1eU, 0xbd31558e3e307ddeU, 0x3d1fb94dbf3161daU, 0x3e80ef2bbf1ae95aU,
  0x3dc486e0bf048e33U, 0xbe317509bd8ea5c0U, 0xbf41b007be88f474U, 0xbeda4b7a3ed94f10U,
  0xbebf9a703e27d7efU, 0x3e8a8ee0bbe37910U, 0x3cd739aa3ed6a096U, 0xbd3c166b3e2959a0U,
  0xbe7c4b19befedcd1U, 0x3e69e5b6bf18eaa2U, 0x3e488c86bee9396cU, 0xbe0ce2f23cf21f68U,
  0xbf043679be9dfd53U, 0xbf1094143e31ccf2U, 0xbe81fa35be661cdbU, 0x3e96024e3db6b579U,
  0xbe59546b3eb58b60U, 0xbe0a18c23df6683eU, 0xbe3e245cbf0e0b55U, 0x3d6a6fb9be928b60U,
  0x3dde5eacbecbf4e2U, 0xbe382b043e93440bU, 0xbe9ff502bee05806U, 0xbed6cf5c3d3151a0U,
  0xbe8fe9febe77f514U, 0x3e905307be3a3696U, 0xbe8c73473e8ed976U, 0xbe398541bcd0d159U,
  0xbe98d7acbeec857aU, 0x3e1f1752bd3c64f5U, 0x3dda3c18bdb8b6c5U, 0xbd3c61623d7ae017U,
  0xbded6e98becf5aa1U, 0xbe3376e3be384834U, 0xbeb96c6cbe8c2137U, 0x3d849ad5be7c4902U,
  0xbe4bd1313d569419U, 0xbddae99b3e271fceU, 0xbe3dc32fbe8f90e0U, 0x3e5e544ebeb2bf8dU,
  0x3df7626abe8a5c3bU, 0xbdd260eb3e51e8a2U, 0xbd021509be78becbU, 0xbe95fb06be404b2aU,
  0xbea008debe54413cU, 0x3d11d7b1bdd76b65U, 0x3dea174e3dc70aeeU, 0xbce982493e45d3edU,
  0xbe0e4e9cbea99c24U, 0x3c5c53adbec54121U, 0x3d4b69eebf1bdf94U, 0xbea71b6a3e71e54eU,
  0x3d5b4be6be1123b8U, 0xbebf574bbe7a6cc6U, 0xbee02a84be68ca63U, 0x3e23c32bbd49b909U,
  0x3e5cdb173e12d529U, 0x3d738f473ea0262dU, 0xbe289d80be6ce6acU, 0xbdac075dbd93e56eU,
  0x3df9c5b7bed03b66U, 0xbe74cbcb3dae6d44U, 0xbe2005e03e92e0adU, 0xbef88088bd83188dU,
  0xbeb357eabdaa52bfU, 0x3dbdf90fbe1c781cU, 0x3ef039fc3e216593U, 0x3de4afa13e8ff7cdU,
  0xbeb609dfbde41805U, 0xbd8921683cf4b2fcU, 0x3dc6f097bee62e2fU, 0xbe2b09a63e18bb81U,
  0x3c26908b3ee86dcbU, 0xbefbfa99bdd97a01U, 0xbde0c580bd84da19U, 0xbcb8bf86bd36702aU,
  0x3ed4a1b03ec0e6e1U, 0x3e1458d53e2353a4U, 0xbec5685c3c33b7eeU, 0xbdd59094bd1f804cU,
  0xbc349eefbe871dceU, 0xbdccd5693e5bf987U, 0x3e4348453ec3a901U, 0xbeecbb00bd1e6cefU,
  0x3d987ca53d782c8cU, 0xbdedb9cfbc5d0b02U, 0x3ef0f6f83e4a9677U, 0x3eccbc8d3dec4c96U,
  0xbed24b36bc7d2a15U, 0xbdc8c733bd221980U, 0x3c0949f6be4836a9U, 0xbc86a5dd3e616a25U,
  0x3e488c323dbbf6a3U, 0xbe46bf6fbddcd189U, 0xbc5c2e603dd61359U, 0x3d3bb86e3e05853eU,
  0x3eb3e9473e0815c5U, 0x3e91d4a93e438ac2U, 0xbe1b39dfbe106416U, 0xbe0c9b233d91800aU,
  0xbe1e7f19bcfd5b68U, 0x3d6511c03e2837dcU, 0x3e0e8e993ea8520bU, 0xbd024b203dece32aU,
  0x3db7ee7e3e9d5e54U, 0x3e0cd33abde2c386U, 0x3e335d76bd5ec78eU, 0x3e5aeac23da9d3ebU,
  0xbc92c5bf3d1574d2U, 0xbb6526243e30ee09U, 0xbe3fc78cbdb1e58bU, 0x3e920140bd9cdeecU,
  0x3ea8e3a03ed9dd2eU, 0x3e57b11d3a5b97ddU, 0x3e2ac4353d95bcddU, 0x3c81592bbd248da1U,
  0x3d5fafc7bdf5b3f0U, 0x3cdc077bbd9214d7U, 0x3d8dc62d3d4d0ff4U, 0x3db0a2763e04d69eU,
  0xbdd679efbe54978aU, 0x3e6392363d10cfc9U, 0x3ebe4f653ef9c13bU, 0x3ecff52dbc8117feU,
  0x3e193c723db6352aU, 0xbd2b6daabe416037U, 0xbe036e86be38494cU, 0xbc14bbe5be776c86U,
  0x3d134a48bd44a43bU, 0x3dfc546dbc7c831aU, 0xbe5f3f98be08db42U, 0x3e9ed3e83e15e043U,
  0x3e2776623ef3b11bU, 0x3f0049ca3d90900aU, 0x3e3359083d32d98fU, 0xbbe9a324bd8c8809U,
  0xbe33713dbeb8e936U, 0x3d218af4be80143eU, 0x3b8efea4be327de6U, 0x3e8c176cbe4fa3b0U,
  0xbe1270acbdf13714U, 0x3eada5653e1022d0U, 0x3e5ee0823e84d745U, 0x3ec494ae3e1ae317U,
  0x3d95180d3e2b5a4bU, 0xbe8e8910be3ac726U, 0xbe1009b8be2e39b7U, 0xbe037f90be4e413aU,
  0x3e3d3bb8be84b524U, 0x3e8d333d3d9af8e6U, 0xbe007910be0f22eaU, 0x3ead2b71bbf8d510U,
  0x3db55c2d3d9db48eU, 0x3ec61d8e3e4db0d3U, 0xbde5568f3e043611U, 0xbedb16f6be4d97e7U,
  0xbe6056b43d498669U, 0xbd4e3425be13d150U, 0x3e64640dbe3a0b43U, 0x3eafc61cbd1856c1U,
  0x3c2ba56cbe2f91d8U, 0x3dceb0923d737dceU, 0x3e9e55ec3cb0eb3eU, 0x3e61ddfb3d412791U,
  0xbe006c4ebcc85f6dU, 0xbea36722bcd35aa7U, 0xbdc8c9e5bdc20d99U, 0xbdd722f2bdb23544U,
  0x3e0c12bdbe0b4705U, 0x3ee1b4433d37a40dU, 0xbe51a5cf3da2fb31U, 0x3dd498edbe84c394U,
  0x3d2e2202bdfa8231U, 0x3e711d0d3e59b9acU, 0x3e140dee3e08d2dbU, 0x3d62b1fbbe91d0a3U,
  0x3e61807ebe17df06U, 0xbdd18223be9f1079U, 0x3e4d57183e299e0dU, 0x3ea015773e23b81aU,
  0xbe645f8c3ead2da8U, 0x3e0fa9e9be24224dU, 0x3e8c53ccbe97efc3U, 0x3e44f5e93e41a14fU,
  0x3e5caf613e40cd60U, 0xbdd6496fbe71a559U, 0x3e351eacbe85c80fU, 0xbe70ab65be2c8851U,
  0x3e3cbac13e36b159U, 0x3e4b5ecb3e0fc8c9U, 0xbef048443f438782U, 0x3f1f085abef7f5cfU,
  0xbe954a92be284ee8U, 0x3f0328353e549fcaU, 0x3e9a172f3f309e4eU, 0x3e95c0abbec9966aU,
  0xbe8c1bcebde4ae8cU, 0xbee72d2abe247564U, 0xbe50e8d23ecf66b1U, 0x3efbc7bd3e324b4eU,
  0xbee5de853f89b1b7U, 0x3f51d90abeae5864U, 0x3d3f7a2ebecbe3ceU, 0x3e16f980be0350e3U,
  0x3edeb8123eaee393U, 0x3e325d1bbf0fcc9bU, 0xbea64436bd05d307U, 0xbeecf138be3f80d9U,
  0x3d14d7dd3e40e904U, 0x3ee4da75bd7a6044U, 0xbecab2c93f1dcc8cU, 0x3e049caabe4dd9faU,
  0x3e53d857bef46f4bU, 0xbe696abbbe2995c4U, 0x3ed58cab3e793519U, 0x3bc7786fbee3da9dU,
  0xbdf1fecbbe87c36fU, 0xbcdb632b3e205237U, 0x3ebad306be1bdc8eU, 0x3e5a3618bec5129cU,
  0xbe8c178f3ed32f65U, 0x3e545558bd6c85e4U, 0xbe695373bea8af1eU, 0x3da89207be3ac594U,
  0x3eacce353ed3c8dcU, 0x3e9fadadbec0a651U, 0x3e0dd2ccbe705c5aU, 0x3d9f21223d5daed2U,
  0x3e40069bbd43f3eeU, 0x3e35e2ed3e594823U, 0x3db0989e3ed8b82eU, 0x3e0ac2423b1d12fdU,
  0xbeaa4c3cbda0d7adU, 0x3e3206a9be837668U, 0x3f06c9ea3eae111bU, 0x3ddfd0d5bda93000U,
  0x3cd0e3f9be3bbb2bU, 0xbd61251b3df2598fU, 0x3e80547dbccced5dU, 0x3e330de13e7ee9c6U,
  0x3eda53fe3ed497ceU, 0x3cd68d863d5bbdabU, 0xbec0625d3e1e9fbaU, 0x3debb354be51db08U,
  0x3e8244063c5ebc01U, 0xbdf7f37e3d8a5ae6U, 0xbd801d87be5f208cU, 0x3c4d4f3d3c32514aU,
  0x3e823abfbdf5f7a1U, 0xbdd7439a3e594843U, 0x3ecdf4d93eca9de2U, 0xbd8fd9bf3e4568fcU,
  0xbdf97acf3e908b21U, 0x3e7d17f7be4d5264U, 0x3e4ad9493c7d7deeU, 0xbe3888c03e753210U,
  0xbde33fcbbe122758U, 0x3df5523b3dc18af7U, 0x3e920e8abe5fe5a7U, 0xbe8ca78dbdce0170U,
  0x3eb0aaa73eaab6fcU, 0xbe2743033e6a2a64U, 0x3d0e39003ed763bbU, 0x3de93022be6e9aedU,
  0xbe44ee5d3dbb81bfU, 0xbe2691c53ebbdbb8U, 0xbe1ee879be6ac84dU, 0x3e9c23803e0b50bfU,
  0x3ed0fddbbf0643c7U, 0xbe315f53be442477U, 0x3e9ad90d3dd0683dU, 0xbe8288d53ea752bbU,
  0x3dab28f23ec24462U, 0x3d6d3945be300f22U, 0xbeebe2bf3dfee332U, 0xbdac8f0d3e5784f9U,
  0xbd8c1384be0421d5U, 0x3e2590f13eb0d4d7U, 0x3ebf0dccbf258b33U, 0xbdba03f5be0e4dddU,
  0x3eb38ac03d07d596U, 0x3d55a3c93eb7a246U, 0xbda850aa3eea0b4cU, 0xbdfabde0bde80561U,
  0xbeeaece33e87b83aU, 0x3deff7a73eae3a5eU, 0xbe0f1cd83d1d8163U, 0x3dc815b43f05e947U,
  0x3e481714bf1527fbU, 0xbddf392fbe10d11fU, 0x3e87ebcd3d98bc04U, 0x3e37a7043e9d164aU,
  0xbdc862183f0267f1U, 0xbe9b51d23c71f166U, 0xbedbcc4a3eb76df7U, 0x3e84feda3e8c5b2aU,
  0xbe8c6f9e3ede3713U, 0x3d1a386c3ee7042aU, 0x3e367d51bf4617acU, 0xbdd49257be0ab030U,
  0x3e24768a3d9c7e6cU, 0x3ed6e67b3e3ee955U, 0xbda7d3d63e7c424eU, 0xbe9b9235bcefc5c5U,
  0xbec3664d3e5eb251U, 0x3e8e412e3ea0007fU, 0xbe715f913f0d621aU, 0x3c6bfc663f255c23U,
  0x3e58d202bed5eafaU, 0xbc96ec113d2d9612U, 0x3e0f17283e5c8c9eU, 0x3e9fe8173ea6658eU,
  0x3e207891be22ecaeU, 0xbe460e293dd835c7U, 0xbe48cea7bd4cb6c3U, 0x3ea062a63e5c1334U,
  0xbdd543d43ee84607U, 0xbe095d163f028d45U, 0x3da20370bea28402U, 0x3d6022febe17a0c4U,
  0x3d8e09043e744680U, 0x3dc683bc3eabe208U, 0x3ea60458be55465aU, 0xbe95de303e1a2734U,
  0xbd767b22bdc4c813U, 0x3eaadd923e379603U, 0xbc8d96a03eaf4504U, 0xbd0485a53e8f6977U,
  0xbd3a388c3c2213c2U, 0x3d24c654bdf4e653U, 0x3d288a5b3eb5f538U, 0x3e25478f3dc0fac9U,
  0x3de512d0bea62de6U, 0xbec9412e3e7dc5a6U, 0xbe1942e8be105a4dU, 0x3e98e8bf3d4cace0U,
  0x3da7c8ec3e7ec504U, 0xbe4d86b13e874a45U, 0xbaa02a6b3de8e310U, 0xbe52b8afbe1e8889U,
  0xbd0d3c743ecce2c2U, 0x3e6c33653e3b6168U, 0x3de107a0bdfe20b9U, 0xbe1b59873e5391f8U,
  0xbe9a08cbbdfe1304U, 0x3e3d86223d980420U, 0x3dccecf53d5f96baU, 0x3c84d3423e87a906U,
  0x3d8c36783e51d136U, 0xbd8d7116be6df7d4U, 0x3cde26b93e7d0decU, 0x3e246a173e1bf939U,
  0xbddc2a96bde2118bU, 0xbddba6343ead6fe1U, 0xbe532536be2c5542U, 0x3d9bbf633d794ab0U,
  0x3dfaa6af3e015f51U, 0xbcb9c0423e8430aaU, 0xbcbc61323e6e5036U, 0x3d915ef4be7a2c5dU,
  0xbe0ab1d63f05a08dU, 0x3eba65d03d2cc9c2U, 0x3c0409d3be4a4db3U, 0xbb91d47e3ea60cf5U,
  0xbe7b75dfbea69c57U, 0x3d9e3d5ebe02b130U, 0xbdc47fe13e2b9948U, 0x3e16fdaa3e542344U,
  0xbe5436ea3e9d9dafU, 0x3dd592b3be1c6776U, 0x3d055ac73f09582fU, 0x3da34d87bcec2ccdU,
  0x3d3ac4f0be83afaaU, 0x3d66f0a43e7b0e2dU, 0xbe28ff95beef02f5U, 0xb9e34de9be07e099U,
  0xbde258f63ddbf253U, 0x3c8dfc893dd5ff66U, 0xbea050f23e9b40e9U, 0x3dacf69abe4a7433U,
  0xbe1abb503f0bf3b8U, 0xbd9eba7ebe022939U, 0x3afb8385bec466d9U, 0xbd22df0b3dcf46cfU,
  0xbc1d4927bee58a41U, 0x3dc47d9e3e337dbaU, 0xbd8412dd3d8a967dU, 0xbae4f8d4bd9ea85aU,
  0xbe687f2e3d214640U, 0xbd5aebaabe035a65U, 0xbe312ce23e9bf214U, 0xbe913d29bdf1c447U,
  0xbd5b385abe3d69e3U, 0xbe945668bc95b7feU, 0xbe1c8389be298e78U, 0x3c15219e3ebc8706U,
  0xbda447ec3e2a3f2bU, 0xbea3e6aa3b85abc9U, 0xbd26a195bc887c8fU, 0xbe87f60abe54e759U,
  0xbe914b7e3c862d04U, 0xbe4e9319bdec6830U, 0xbe157536bdc45c80U, 0xbe76f108bde88aacU,
  0x3d6101d6be61ac27U, 0xbce3ad7b3e9e6fbbU, 0xbdb451c13cd9c17aU, 0xbe8aceb9be19cc38U,
  0xbdb46137be24ae11U, 0xbeaac674bd4c61efU, 0xbea4c3d6bdf7f8c3U, 0xbe82ad4b3d799947U,
  0xbe152c73bdba3e11U, 0x3d48c4d3bd045f6aU, 0xbd30db1fbe1d8e98U, 0xbe1bef623e3b77f5U,
  0xbd630955bda7547dU, 0xbe607d02bea5401aU, 0xbe0fb7f9bd830596U, 0xbead1a033da7ed9fU,
  0xbe584609be3a2e04U, 0xbeb0d29fbd0bc4e0U, 0xbbcbcc5dbe9cc8ccU, 0xbd68a2db3de0b876U,
  0xbe05eb34bdf96ffaU, 0xbde8f413bc8c17b5U, 0xbdb10d163db824bdU, 0xbec05e71be6c4ba3U,
  0xbe2e85613e32b9cbU, 0xbebcb6bbbdaa236dU, 0xbecc5626be51b8c9U, 0xbe97952abe194b50U,
  0x3e66b9ddbea3f4b5U, 0x3e05f9f23d8fdbbaU, 0x3b05cdefbda453b2U, 0xbeb1648abdeae1c6U,
  0x3d921079bdc6191bU, 0xbeb70f8cbeb9a082U, 0xbe8a49cc3ca29166U, 0xbe97eaadbdd99504U,
  0xbec54a2bbe7ecf45U, 0xbeb0262dbdf565f5U, 0x3e68a0c1be5b7719U, 0x3d27912e3e07b942U,
  0xbdd2bfdabdd2a4bdU, 0xbeb902a93ce9b5c5U, 0x3d3a9d73be4644cbU, 0xbea97255be7a026cU,
  0xbe4371a23d6de6f0U, 0xbedace3f3c3bbc3fU, 0x3da105e0be3910dbU, 0xbe9140863df15fc5U,
  0xbc9548cd3dd9e0a2U, 0xbde99922be36eecdU, 0xbe5b44fbbd903bf6U, 0x3e35182f3da7294bU,
  0xbe4704303e9959adU, 0x3df1da243e8890e3U, 0xbdc6025ebe7cb6e8U, 0xbe8f5417bddbce2aU,
  0x3e578ce1be136bc8U, 0xbe8480533d9ddbe1U, 0xbdd0869d3deaf3bcU, 0xbd764bc9be04b27bU,
  0xbde8bd15bcdbff0cU, 0x3d6232183e1c93e3U, 0xbe646ecd3e47c4fdU, 0x3e6cfcdf3e2469fbU,
  0xbc27393bbe6ac528U, 0xbe4b546ebe6706f4U, 0x3de169c0be0b11d4U, 0xbebb47a73e7e739aU,
  0xbe08c0f13d591adaU, 0xbe0bfd89be54dc39U, 0xbe9d5570bd91c849U, 0x3db021173d9cad2fU,
  0xbcfa8fa13e3e484cU, 0x3e5e533d3e5ccf6eU, 0xbdfccb4cbe6427eaU, 0xbe5d1bb9bdc98ca0U,
  0x3e8d9d4bbeaa3f46U, 0xbec3ba0f3e81712fU, 0x3c49afa33df234ebU, 0xbeb0f1a7be3946d6U,
  0xbe34c939be2cf16fU, 0x3dae8be63eadd23bU, 0x3dfbf4ac3e84401aU, 0x3e84d8133e1c24fcU,
  0xba3ed3f5be432fd1U, 0xbe984368be00f913U, 0x3f38ac98bf45543dU, 0xbf2371d73ea2c0ceU,
  0x3ec230873edf17d6U, 0xbee7f660be9d2d69U, 0xbdfe2f21bf2f4940U, 0xbe9cbfba3ef8d359U,
  0x3e1b40803d077f17U, 0x3e8604e43e9e8c85U, 0x3e56d0edbe90c306U, 0xbe9a83bfbe5e4db9U,
  0x3ec8db7cbf2255ecU, 0xbe04243a3efb07f6U, 0x3d1080e83e92751bU, 0x3e0f40e4bee6e20bU,
  0xbe7f484ebefe83fbU, 0xbe4796343f0a6a3eU, 0xbd50c73f3e65a43eU, 0x3cc1e59b3ee9bdccU,
  0xbe6ac92fbeabbc63U, 0xbea7adadbea770e0U, 0x3cfddd2bbdbb153aU, 0xbe501eca3e81a999U,
  0x3d9963c53d25b356U, 0xbdffc5673ba7d4f5U, 0x3dec837cbd859eb6U, 0x3dd1d9e93ea35f5bU,
  0x3d80da403dd14f31U, 0xbd4762a43e23844aU, 0x3d82d25ebd8ad5d4U, 0x3d3a47f9be6c1460U,
  0xbdc37820be96da59U, 0xbcc040da3e3116ebU, 0x3e09b712bce7272cU, 0xbed4ec593e612c07U,
  0xbc610da0bd936e10U, 0x3cca405c3ce4f5e0U, 0x3da5f6143e654d81U, 0x3df3a90a3e60ab8fU,
  0x3da13e8f3db04d6eU, 0x3d60d581bea5125cU, 0xbe734276bef46440U, 0xbddf1d3a3ea48bd0U,
  0x3e9e7170be052dd8U, 0xbdc658c93e0f7e4bU, 0x3eb87d8e3b3b5825U, 0xbd91aa27be388856U,
  0x3ea144643d29b7aeU, 0x3dce8dc03e57fac2U, 0xbe99c325bd31c8aeU, 0x3b036c66bea3d742U,
  0xbe549d44be833f03U, 0xbdf33d763e01401cU, 0x3eca5763be1bd73dU, 0x3e48f32c3e9d3110U,
  0x3f0fbed23deeba26U, 0x3e95a2abbe63aa3fU, 0xbd96c3e93e34e7e8U, 0x3e4282c3bdbccf50U,
  0xbea7f9a43c967c6aU, 0x3c77ed5fbcdf7d30U, 0xbd87db9ebe9ede51U, 0xbda5eac53b584feeU,
  0x3ea5ff9abdfb8254U, 0x3e479aed3e86d77dU, 0x3f018cab3e546e4fU, 0x3e688a5abe27fc14U,
  0xbe950bd73df416daU, 0xbce1a43abea3b288U, 0xbe74bb363cb0c133U, 0x3dada6863e2ce36cU,
  0xbe396460be8c264dU, 0xbd34ed9abdb052bbU, 0x3ea569bcbe289eb5U, 0x3e57169b3eaaec55U,
  0x3ea477a33e2fe4bdU, 0x3dc509fdbe2a6d38U, 0xbe80e475be43bf06U, 0x3caa53cabece6fa4U,
  0xbe6e140fbd61fa1aU, 0x3e8a8b8fbd973e63U, 0xbde7d652be796479U, 0xbdee55e5be5209bbU,
  0x3e1209d1be8ff10eU, 0x3e8a86703ddc28b9U, 0x3e73c7e33defac89U, 0x3dc6f064bdf06d59U,
  0xbe0d3136be956868U, 0xbd038286bea076b1U, 0xbdb2b0bfbde2a523U, 0x3eb732a2beeb3aadU,
  0xbb184824bea0e329U, 0xbe302d64be51c0d3U, 0xbbb738f1beac78d8U, 0x3e86cad73e07b6a5U,
  0x3e414478be399b4cU, 0xbde8f142be1683ebU, 0x3da358fbbea45762U, 0x3e2cb68ebdfac60cU,
  0xbe65adc9be90e561U, 0x3edd4a5bbf05832aU, 0x3e196d70beb9a019U, 0x3da61db6be52fc6dU,
  0xbdfd9281be61c921U, 0x3dbcd6693dcd1867U, 0x3e6e7de1bdf61591U, 0xbe41b9b8bd982b78U,
  0x3e705709bdfa61c0U, 0x3e24968cbe3d0e7eU, 0xbdfc2d2dbdbfdb58U, 0x3eb6a91fbe82ee9cU,
  0x3d213e1abdf75f8fU, 0x3eb61a80be894890U, 0xbe53c49b3b0c6fd0U, 0xbc854f8e3e49935fU,
  0x3d922bd73de68df6U, 0xbe8a3354be8a9c7aU, 0x3e3878cdbe1da40cU, 0x3e151963bd913af4U,
  0x3e2e32913d01977dU, 0x3f0971fb3da5d5e3U, 0xb94cf5cb3e8476f6U, 0x3f064239be72be02U,
  0xbeb38db43e68bf69U, 0x3d059e6e3ecdda9fU, 0x3cdd50943dbc0171U, 0xbe499f25be7ebfe0U,
  0x3df5debabe469389U, 0x3eae3ee23d79f752U, 0x3e1e7a673d894402U, 0x3f0fc6923e6da726U,
  0x3dd67bce3ece6a8cU, 0x3ef96704be66f3a5U, 0xbe849ff63e811eb4U, 0x3e0c08123e9e5ab4U,
  0x3c1724103e5fb0efU, 0xbdfde4bfbe63e1baU, 0xbdb73ba5bbf7ae65U, 0xbcb89e8b3e8c6dbfU,
  0x3e0165173e3c6f35U, 0x3f32cd213e648726U, 0x3cd991b83e4cf482U, 0x3eff6955be16f943U,
  0xbe8d35e43e7bebb2U, 0x3e6a449b3e8973f5U, 0x3cea35883dc9ab91U, 0x3e605f8c3b026a77U,
  0xbcb0ee20be4e25adU, 0x3d6f0a243e7aac50U, 0xbda43c913d6b7a0aU, 0x3f0976463eb1f4f0U,
  0x3c0d8b3c3e86b780U, 0x3e4efde8be5b921fU, 0xbeaed58a3ea6a2e7U, 0x3e5ad2603d8acfd6U,
  0x3b979ca9bda0adefU, 0x3e5f69da3d2dbfa2U, 0xbe8f5d99be9ea65eU, 0x3d683df33c542b11U,
  0x3dc6547abe1218a6U, 0x3f1642883ec35128U, 0x3dc49e6d3e93a87fU, 0x3e213aa23ca5a014U,
  0xbeba99263ed5c235U, 0x3e73b636bde038d2U, 0xbd3c8f8dbdd66cd2U, 0x3e456e793ca0de0bU,
  0xbe303ba7be85052eU, 0x3dbc4b7c3d803f41U, 0x3d7babbfbe8e4807U, 0x3ee0c6193e94c781U,
  0x3e010ba63e6f8c89U, 0x3dcb698e3db11647U, 0xbed516b13ea17bd3U, 0x3da9e1bdbc93dc6aU,
  0xbe91d3a53d8ffd97U, 0xbd1b65783d9c45f2U, 0xbe55acfcbe0603deU, 0x3d4be74f3d0eb260U,
  0x3da563ffbe390b35U, 0x3d25886a3d7d70e3U, 0x3e27a3563e9f4e0cU, 0x3e2ccdfa3dec8f3cU,
  0xbed441773dbb7c65U, 0xbc9d0556bd90d2eaU, 0xbe9878213d858c2dU, 0x3d219eac3dce5f7fU,
  0xbcdb0f313d6546bdU, 0x3dc7cda53d6305e2U, 0x3c22308d3d5fbc71U, 0xbddeab88bdd447baU,
  0x3ecb8b523eebe029U, 0x3dff51443d9ce2f0U, 0xbec119053d178befU, 0x3d8f05babe2ed100U,
  0xbec02bb8bdafd5bcU, 0xbc99bb6e3d1ba738U, 0xbd3f3d9f3e200e3aU, 0xbd0bf5a83dd3159cU,
  0x3e09e8483e3dc2f1U, 0xbe0c4b7e39a02c3cU, 0x3f07923c3ec5b9eeU, 0xbced4f46bb6fa2beU,
  0xbe6daf7fbe95db61U, 0x3e615e56bed5bed2U, 0xbe5a5b62bdcab090U, 0xbd134a783d61e8a8U,
  0xbc1ac5b73c84bbc0U, 0x3e16b4ef3e8ca5d9U, 0x3e2768563e480ae3U, 0xbe0cfdfdbd1a25bdU,
  0x3eca7de63ebe99fbU, 0xbd5bd0463e327238U, 0xbdc47e5ebec08451U, 0x3ddf29f7bec94004U,
  0xbe01ac8b3d5004f3U, 0x3e8279b5bde24113U, 0xbdbb9b38bd8570fbU, 0x3e3cd9793e53124cU,
  0x3e4c94803ea78591U, 0xbe1b493bbdaeca27U, 0x3ecf7bf63f1a5485U, 0xbc68e4673e7f9e06U,
  0xbe813c4ebe8b1012U, 0x3e586dadbe9f32a0U, 0xbd7e4e6b3e941786U, 0x3ef566e73d5ea607U,
  0xbde3d9f53e1dad1eU, 0x3e2ce07f3e29e8e5U, 0x3e65e1033f1430beU, 0xbe81418dbe30612bU,
  0x3ea412553f7cde02U, 0x3d72a8be3ecfac01U, 0xbe4ab335bea6a770U, 0xbb5ee80cbeb2c987U,
  0xbd5269e83d9bcb1eU, 0x3ef6ec393d29c9f0U, 0xbeb3c7493db2e497U, 0x3e26bcd53dd7223bU,
  0x3eb691d83f395d5dU, 0xbe846bcfbdf2f1d4U, 0xbe49f5e03e49cf7fU, 0x3e830ee8be3c4071U,
  0x3e28bc38bd2d2086U, 0x3d3da7c5bd51c972U, 0x3e25ed223dbbd06eU, 0xbe15bc0fbe50a1baU,
  0x3e24acb0bdd2a114U, 0xbe25c888be7d9259U, 0xbc17e1ce3e08da41U, 0x3e5bbd0f3e825042U,
  0xbe431937bc54f3c2U, 0x3e28cc37bd9af853U, 0x3d8062b4bd851c4bU, 0x3d4ec91ebd26aeeaU,
  0x3e30de6f3e137c5dU, 0xbd4d36c9be5c09e0U, 0x3e43b7c3be558aa8U, 0xbd6cf791be986130U,
  0x3d85fdc23e417294U, 0x3e4a06c83e5a616aU, 0x3c4675d8bd8ac2afU, 0xba1351e43d123f42U,
  0x3f0039a7bd1e3591U, 0xbd6a180bbbee7097U, 0x3d324918bdcb5f37U, 0xbea69973be12c7a5U,
  0x3ee78d6ebe4ac313U, 0xbca0a4b8bca15df5U, 0x3e5d7a373db157fdU, 0x3d0e936cbc295b0cU,
  0x3d7975e7bebe2021U, 0xbd91fada3e07eb3fU, 0x3e8b2e65bd4afc36U, 0xbea5d2d63dc64385U,
  0xb96291b43cee8d8eU, 0xbedf0ec2be6afa8bU, 0x3ef344e3bea33b23U, 0x3e36b081bbfa4f1eU,
  0x3e874319bde8f25dU, 0xbe424c0cbcc3a050U, 0x3e045147bee9bbefU, 0xbc708435be47eb0dU,
  0x3db19132bddb68c2U, 0x3cca560a3d24e794U, 0xbdbb5ed6bcd4fdbfU, 0xbe22c017be716115U,
  0xbd23038b3bb7984eU, 0xbd66800dbde6d58eU, 0x3d487141bd8827dbU, 0x3d22f0ff3c3dda40U,
  0xbd93dc5dbe5ccfdaU, 0x3ca0fa2ebe50caa8U, 0x3dcb6035bd30b115U, 0x3e2c1cdcbd1cdab8U,
  0xbb029fd23d4d5435U, 0xbe163a2a3d83d49eU, 0xbd7d43d33d191b66U, 0xbe292109be44bf16U,
  0x3d2cd4e73df56525U, 0xbdf329873da45570U, 0xbdbc4bf9be2fb14aU, 0x3c4759e4be82ca1dU,
  0x3dea58e83aab5fafU, 0x3dbd9232bdafd647U, 0xbe1b502cbe2646a5U, 0xbdb2abd33d90b998U,
  0xbe487c21be224da7U, 0xbdd50e24bd3f5027U, 0x3e83b9893bb1e83aU, 0xbca134003d6555caU,
  0x3c071aaf3d5ae07fU, 0x3d794a0dbe8e029fU, 0x3c3bdad13e6db2a8U, 0xbdb87e73bd410e9aU,
  0xbe8afe21bca5c3cbU, 0xbdda223a3b32f18bU, 0xbcd4ae8fbe609ed3U, 0xbdf7b26e3cf829f7U,
  0x3e5052123e07d97aU, 0xbd8c626bbd8baab7U, 0x3db2002fbd47e821U, 0x3d18a1a2bdd464c7U,
  0x3e9664093e37d745U, 0xbeee2119bbfcb0deU, 0xbd2ea4b83de51c1eU, 0x3d81f2a73d20e0f9U,
  0xbdd9d80c3dcc18c4U, 0xbe473734bcc10245U, 0x3e349d073e001a06U, 0xbd86049ebec13529U,
  0xbdc3d2c7be2fe787U, 0xbd1c9326be38f610U, 0x3e8d92373d614b5eU, 0xbf11cc373ca3d45aU,
  0x3e8fe9fbbde9f1f8U, 0x3c991e073d8732f7U, 0xbd1f03a3bd359381U, 0xbe262b843d96b85eU,
  0x3db80fb13b0785f5U, 0xbcd915d4bee8ff31U, 0x3d198403bcb386ceU, 0x3d89b090be111ee2U,
  0x3e8fd490bd030469U, 0xbed3ad02bdf23c1aU, 0x3e45fa89bd752b8eU, 0xbe5d97133dd57d98U,
  0x3cd1fe85bd4d8451U, 0xbd9dcca33d8e04f8U, 0x3d0d1a173ddf717bU, 0xbda14be9be2dea78U,
  0xbdfca647bd9cd6adU, 0xbdcc4f37be0b5458U, 0x3e7616503d6c7965U, 0xbee92d3bbdf631c0U,
  0x3ec42cfc3d6f67c7U, 0xbe3cc5cfbd619dd8U, 0x3d24f13f3e6e1f25U, 0xbe0d2c8d3e0a7b1aU,
  0xbdb60a7e3bb80d01U, 0xbea146363bd5e822U, 0xbd2a42c03da41007U, 0xbe0d43c4be7ac97fU,
  0xbd2a4598be13a7d5U, 0xbe3f29c6be8ae747U, 0x3e852d5f3da99a4cU, 0xbdeea3fabd72e897U,
  0xbc9fa0563e0f26a4U, 0xbc44d7653dd18cf4U, 0xbe789bbc3b512171U, 0xbe85b7c73d5dabb1U,
  0xbe1a1eb43e2e4acfU, 0xbea03deebe8fb72aU, 0xbc38b4dabddc3e95U, 0x3d9f05e7be05bae5U,
  0x3e43022a3e5a3be4U, 0x3ba0d684bd81219dU, 0xbd5bb2d63e548148U, 0x3d62c3e8bd962656U,
  0xbd043437bd07d34bU, 0xbe8592383e3e2526U, 0xbe8f816f3e22d07eU, 0xbeaf3566bdce57baU,
  0x3e45b90cba01eff8U, 0x3e4c4189bdf88b00U, 0x3e8ff840bc91e72fU, 0xbd4db2333bb58900U,
  0xbde0732ebcb55a0aU, 0xbcc57e4ebe37903fU, 0xbda2859abe2fd757U, 0xbd85eb7a3eda6e75U,
  0xbeaa64fd3cccb2e6U, 0xbdb0eb1fbe57ce59U, 0x3eb6a7e4bd5eca15U, 0x3d8f0a1ebe52a587U,
  0x3e6da17bbd9e80c9U, 0xbdfec9b73e1894b6U, 0xbe8b8c4f3a8de502U, 0x3cb3265bbd726aefU,
  0xbe061790be4e2571U, 0xbe06b5073eb474e3U, 0xbec34fc8bda641d7U, 0xbdd7ea33bc3c763aU,
  0x3d8f283a3d885e79U, 0x39b7b5d1be0d8fabU, 0x3e9e2798bde3586dU, 0xbe8aa4163e2cce7cU,
  0xbeb74fdbbe154b8eU, 0xbe46a953be8762e1U, 0xbe7a96cebe7e9251U, 0xbe35ff263e59c34cU,
  0xbe8473b6bb19558aU, 0xbe1c81e4bc314d3bU, 0xbe7d07b63d956b53U, 0xbe9645c1be5bbb7eU,
  0x3ea18c34be7ad08aU, 0xbea12efb3e249ec9U, 0xbed0b7d53cfc449bU, 0xbe7c3f79be97172aU,
  0xbda0a265be6b0bf1U, 0xbea7c0b6be5b6d9cU, 0xbe70b88b3e4c679dU, 0xbea61fdabde5316bU,
  0xbe638584bd5238a0U, 0xbe9e8f6dbe2b0c08U, 0x3d29d054bddc43e6U, 0xbe8575573dcf8eb0U,
  0xbe97ffeb3e40148dU, 0xbde90f6abe490e9bU, 0x3e29ea25be1f08e4U, 0xbe016697bf029406U,
  0xbe3be0bfbcd495f5U, 0xbefa655fbe6f969aU, 0xbd94c1a1bd23cedfU, 0xbe805634be2998faU,
  0x3cf590523cc648aaU, 0xbec613533ca70b79U, 0x3df0252f3eb05dd7U, 0xbde76c1fbdbaad6cU,
  0x3e36c71e3d1095c3U, 0x3e031414bed9f72cU, 0xbd86888b3dc29218U, 0xbecbf49ebe1dffafU,
  0x3e1c62903d294c15U, 0xbd3f4ba9bdb90f34U, 0xbd9f91583da3a7a1U, 0xbe77f5d6bd164b87U,
  0x3e9ebc153e204463U, 0x3e409e6a3dc2e120U, 0x3e030fbfbd22ed38U, 0x3e03c75fbf00086aU,
  0x3d17360e3e085196U, 0xbeb263d33df51d4cU, 0x3cf3d297be0e2d0fU, 0xbd0a95a9bdaf334aU,
  0x3c7f1a153e1a4bd9U, 0xbdbaada9bd82c561U, 0x3e14e0993d166939U, 0x3d98976c3ed7842cU,
  0xbd9963233db467eaU, 0x3de23f3bbe14497eU, 0xbbcfd12e3ebc212cU, 0xbe8d9bfe3e014e76U,
  0x3dbf2580be2f096cU, 0x3df89644bd7611c5U, 0xbe1fbc1b3e0649abU, 0x3d3168d8bded0ab4U,
  0xbdebc59dbe93ecbaU, 0x3dfe9fee3ee1ca89U, 0xbe7cd7c03d9d0981U, 0x3e592ad0be3d9a8bU,
  0xbe0f81bb3e607a34U, 0xbe1b4ad7bc545ef9U, 0x3e2b65bbbea47e9bU, 0xbce3ec293dff67cdU,
  0xbe7a39c33dbb7f0cU, 0x3db8bdbfbe601ac3U, 0xbc106b2abea1c57cU, 0xbd9e31483e86a5bdU,
  0xbe4c8c263e2811b6U, 0x3d6d090e3ceb245dU, 0xbe93798b3e432a43U, 0xbe03828ebe498427U,
  0x3e846118bf03cde0U, 0x3ce23d6f3dd1afa4U, 0xbe42b260bd3af019U, 0xbe122ed7bc249fafU,
  0xbe4c9aedbf0bec7cU, 0xbd32d06b3e927a10U, 0xbdee75553e38fc66U, 0xbb95988fbd37357cU,
  0xbe069c203c3ff7fdU, 0xbe9fcf8cbe87712dU, 0x3e884e20bee94574U, 0xbd4fb6973dfa3a02U,
  0xbe119c5dbe8d6895U, 0x3dcfa8f23dd17c10U, 0xbe5a5ec7bf1e4eb3U, 0xbe2a06543c8c50a4U,
  0xbe5b23abbce404c4U, 0xbe64f3993dc5e21dU, 0xbde6a9ca3d0ee5d2U, 0xbed193f1be3d7320U,
  0x3ef1a4c9bed11862U, 0x3e453317bcb704d5U, 0xbcf84984be9db313U, 0x3d683aff3dcb524fU,
  0xbe3230b4bf1fbbddU, 0xbe838d29be1aed8fU, 0xbe8b23f93cd24700U, 0xbe988e173e212d3dU,
  0xbe53fb8bbe06035fU, 0xbedd0aa3beb2fab1U, 0x3ecaee83be2044f5U, 0x3e9a2b633ddd25c5U,
  0xbd4befbcbe79fd09U, 0xbda42da73d29ce5cU, 0xbe8e081ebf1176d1U, 0xbe613b32be512b83U,
  0xbe2a9440bb21893dU, 0xbe9b9098bcb1aee9U, 0xbc4dcef43e1a4cf9U, 0x3da8da29be12c4bbU,
  0xbd3aa744be458564U, 0x3db721283e2938a7U, 0x3e829faf3dc92c2eU, 0x3c8e44d13d0557f7U,
  0x3ce1bda7be216a7cU, 0xbdf3c917be113d4fU, 0x3cf3f8893d834e6dU, 0x3df5888c3cf600edU,
  0xbd6192993d0e8814U, 0x3e0d04b5bd35c13cU, 0x3e0966c2bdbe8982U, 0xbd9141bc3daa3cd3U,
  0x3d5683553e09a3c4U, 0xbc5be349bdda0bc9U, 0x3db96285be461fe1U, 0xbdcc6252bdd295b2U,
  0x3e03bccbbd01da04U, 0x3e6880f5bbeab6eaU, 0xbd75bfa8bd13a67aU, 0x3d14afa7bd8d321fU,
  0x3e9f0526be628479U, 0xbdc34c57bdb9114fU, 0x3e2950513dc44265U, 0xbd5673773d6c01f5U,
  0x3d8c9037be2df2ffU, 0xbc7347e23c99b512U, 0x3e77e0813d0b00d2U, 0xbd3100aabcb09ce0U,
  0x3e40a82abe6aef27U, 0xbe2f054fbc9b82c0U, 0x3f546164bda7caf4U, 0xbea94d53ba87d00eU,
  0x3dc9de65bd97581fU, 0xbeb73bea3c20042fU, 0x3ec04deebdc8ed19U, 0x3df39c873d44a9d4U,
  0x3e85b427bd997b74U, 0xbe707c37bd60ef41U, 0xbe05b4ddbe7de745U, 0xbc9749023e7ba5c4U,
  0xbc554ef73e8591f9U, 0x3d5f58ff3d6c66afU, 0xbc79f6abbcbc25cdU, 0x3d48d1aa3f025832U,
  0x3d91ae1bbe2cee97U, 0xbe057cd7bdc63fe3U, 0x3e2f4dc9bcc9a405U, 0x3d708166baeaf47bU,
  0xbdbe6b01beaf2f2fU, 0x3bf4413d3f155ce3U, 0xbd08874c3d6423c3U, 0x3e058a823d4716bcU,
  0xbe8314abbe81d0c9U, 0x3d7955353edd66b9U, 0xbb4d4ee4bda45eb9U, 0xbe862c18bdc6b46eU,
  0x3e2fa11abe5a787aU, 0x3e082ebebe446255U, 0xbe04958cbee38d91U, 0x3dc0a9493ed6ac13U,
  0x3d1434df3df29808U, 0x3e39ce593ea6a374U, 0xbed7b294be203412U, 0x3dbb214dbe17e738U,
  0x3cf386f03c94b1d1U, 0xbd60b77dbd187137U, 0xbe6b3791bd7923dfU, 0x3bf5ee333defe50bU,
  0xbe3c0cabbeabe19bU, 0x3e065a06bd6c3eafU, 0xbd50e60d3db1abd2U, 0x3d16efb93e0aa765U,
  0xbef127d3be8ea254U, 0x3df45c11be39bff2U, 0xbd5dd5d8be071e85U, 0x3c05572abe5b769cU,
  0xbee2b24bbdc1b10aU, 0xbad99c763e810360U, 0xbe53b11bbd0319ecU, 0x3d71bbaabeb1d419U,
  0xbce403e63dccdd6fU, 0x3e3eeae03dfd64a5U, 0xbeedf9c5beba4d7fU, 0xbe1265f4bd2cdb08U,
  0x3e7c535e3dcf1047U, 0xbe394318be3353e0U, 0xbe7baad43d813aa1U, 0x3e2ba202bd2d9e8bU,
  0xbd338347bc059f36U, 0x3ea89d1cbe6e18cbU, 0xbe19c87e3d8ad8d5U, 0xbda21bb43e5e0f5cU,
  0xbeaa3d6fbee10ad2U, 0xbe408147bc443793U, 0x3e91fd933e060295U, 0xbe92e922bd6cf725U,
  0xbe23717abda2653fU, 0x3dfe427fbdec717fU, 0xbdfddafd3df34c52U, 0x3e4650a6bdfd988cU,
  0xbdcdfb34bdeb7feaU, 0xbd97823c3d34b9f4U, 0xbeddb486beb9ad30U, 0xbd33d7993dae1591U,
  0x3e4932323dd4337dU, 0xbe7b17b63e14dc17U, 0x3e04566ebe2df6e8U, 0x3e43d0a3be8cfcc7U,
  0x3cfc70863d4565b2U, 0x3de7fe91bc6f3522U, 0x3e5a5156be6eb848U, 0xbe6aa4d03d8061c3U,
  0xbdfd3dfcbe8c5dfbU, 0x3daddb6ab9ea13efU, 0x3ec61526bdced971U, 0xbe0897163e88a9d8U,
  0x3db6ca8ebddd6264U, 0x3dcbcc4cbd6d694dU, 0x3d8c25ad3cecf4f1U, 0x3e53ada6bd387de0U,
  0x3e51381abe3ac32eU, 0xbe4f66453e02b7b5U, 0x3d42c57fbdacace9U, 0x3dd25aca3d951238U,
  0x3eb1ba98bdc0044eU, 0xbdb697913e8dcf45U, 0xbe32ff22bd0d1220U, 0x3cc077543ebcc7baU,
  0xbdf7d3d9b3ddf000U, 0x3ead51c73e119664U, 0x3e197e89bbe8b6b1U, 0xbd17dfe73e174bccU,
  0x3ddfc76e3e0d5531U, 0x3e139041bb6bdf76U, 0x3d45012b3dd6c1ceU, 0x3ce7a2de3e6cf983U,
  0xbe054f403e00b99fU, 0xbe99f9423f17f541U, 0xbe3255e63d65d274U, 0x3e35ecab3e06da35U,
  0x3e21360bbe373426U, 0xbc01bce03d3a6c2fU, 0x3e22e0363c3ab8fcU, 0x3daa028cbdd0e7a4U,
  0x3d4e19b3bd615aeaU, 0xbb92cce73e863cb6U, 0xbe3ee6273dc0ac66U, 0xbecd08f03f0a83e7U,
  0xbe0e115d3b688eaaU, 0xbd5f2448bdcda812U, 0x3de071883df9c0bcU, 0xbdb9a683bdbf98eeU,
  0x3d852aabbe223f9dU, 0xbcd138753d3c1a76U, 0xbd8a0450bdf25574U, 0x3c23264a3e2d5ecaU,
  0xbd7a09df3e10d9b5U, 0xbed5a1173e5d7dbdU, 0xbe1c4572be4892bdU, 0xbe88d37b3d97291aU,
  0x3e2690f6bac5108cU, 0x3e62568bbe4343a8U, 0xbd0c1dacbe22656dU, 0xbe7ddf3b3d17889cU,
  0x3e10ec0abdc16391U, 0x3c48b802bd412aefU, 0xbe0c35723e524acfU, 0xbf443b8a3ca68d68U,
  0xbd95fb9abe7f290bU, 0xbe38a46f3e346df7U, 0x3de7127b3b81dde9U, 0x3efb7456be5358ccU,
  0xbc8de1e2bd54b904U, 0xbe95d8063dbbbd6fU, 0xbc80bc60be7e203dU, 0x3c9d2a88bd1ecb49U,
  0xbca0cdf9bda7260fU, 0xbf348ce93e85f699U, 0xbe7b0786beb74260U, 0xbe8178293d77faecU,
  0x3de4b27cbd08aed7U, 0x3ebf96a9be886763U, 0x3ce2135d3bdd664fU, 0xbdb0daba3d3ddb29U,
  0x3d1bdd6abe343d44U, 0xbc060949bd67227cU, 0xbcbf18d7bb6efeccU, 0xbf279a4e3e08c9a2U,
  0xbe12c20bbed21e77U, 0xbe1cfa61bab11bc5U, 0x3e20178fbe61a586U, 0x3ea95a03bea36ea8U,
  0x3e3725f43d3740bbU, 0x3d442c1d3e6ce1acU, 0xbdef13f1be9a0c1fU, 0xbddbec44be224259U,
  0xbd037670bd5b61d1U, 0xbf12bae03dd78b58U, 0x3c2ce26dbeb15dcdU, 0xbdd5d1f5bd139517U,
  0x3d6569a7bd8ec32aU, 0x3dd0ae67be8f9c3fU, 0x3e51a467bdb91342U, 0x3c8455863dd6399cU,
  0x3da5bc4abe8644b8U, 0xbe417826be4232f3U, 0x3c5186253e0f4ca4U, 0xbf1674d4bd268bbbU,
  0x3bb536fabef37f2dU, 0xbd5a61fdbd80cd29U, 0x3e112f8b3d0cbd25U, 0x3e078db5be1ba361U,
  0x3ed7415a3ddd7957U, 0xbc06263c3dc25424U, 0xbd10568abd86a10eU, 0xbdcd56c3be739c68U,
  0x3e4efd6c3e11440bU, 0xbe73ab0c3dad62eaU, 0xbd1cd425bedd594eU, 0xbd6c48763dcda8cbU,
  0xbdd7ab063d93d88eU, 0x3ead4d9bbe75d6d3U, 0x3efd027dbc94d5cbU, 0xbe1952f53d9011b3U,
  0xbe148ae4be3e7536U, 0xbdba1bd5be85c71eU, 0x3e425e7a3df69e53U, 0xbe5410383e355892U,
  0x3dbe3c1fbedef22bU, 0xbe2b0b843de5b395U, 0xbde3aabe3e1e74feU, 0x3e8e9992bc348673U,
  0x3e929bc03e142f4aU, 0xbe8082f33c5009baU, 0xbd63df873e42779bU, 0x3e19d6babdfd981eU,
  0x3de5d753bde50d16U, 0xbd61da5e3d848062U, 0x3e5e74a2bea686daU, 0xbce1ef863e85d8f8U,
  0xbe3e9ece3e354a53U, 0x3dffa494be6738a7U, 0x3ca7e3863d8c3b51U, 0xbebda4fcbd18ab2eU,
  0x3d3fdec23edf8d92U, 0x3e3c5ac8bc85c0afU, 0x3e9ba05cbe5aea01U, 0x3d620057bd9fb685U,
  0x3e155061bdbbf642U, 0x3e4650623e65a43eU, 0xbe973cd7bb527069U, 0xbd957799bdda707eU,
  0x3e09d4e73eaeb463U, 0xbeed2c69bdc2f8e4U, 0x3e87dd3f3ede591aU, 0x3ea86ce73df0dee9U,
  0x3ea105763e2ec60eU, 0x3ea3216bbd4eb86aU, 0x3e772ee53e200580U, 0x3f0420d53ea13759U,
  0xbeb648f23ca54decU, 0x3d9f8481be761078U, 0x3e51ac5f3f0c26bfU, 0xbdb8a3f03d13160bU,
  0x3d6844003e4fdb8cU, 0x3eec7a443d9a4bceU, 0x3ec7cfdc3e650fceU, 0x3ecdd36c3cf446d3U,
  0x3e4424d83ef3643eU, 0x3f2178223e396e2dU, 0xbe7c5bd4bdae3cfaU, 0x3dfcbc82bdfe05fdU,
  0x3d90f82a3edec082U, 0x3e2d1f6c3e1a1b94U, 0x3e00994b3e1c1bd6U, 0x3eb080753e2701acU,
  0x3e9122743e9cbb15U, 0x3ebd5021bc5ba02eU, 0x3e29a301be0c830fU, 0xbd8d59cc3e089cc4U,
  0x3dd345a03d0d4451U, 0x3e12861bbe1ce4a7U, 0xbdbad407be008210U, 0x3de6fe03bca2b9ddU,
  0xbf60a805be32fc06U, 0xbf338e16bf8484dfU, 0xbf8f8106bf831801U, 0xbf433077bf1e7e30U,
  0xbf278349bf12486eU, 0xbf0998b9bf362367U, 0x3d06897abe470da2U, 0x3e4e6b353e127f7aU,
  0xbe142e0d3d6f9c72U, 0x3e98d2c53da615a8U, 0x3dfe3cde3e097327U, 0x3ef024f8bd0fe562U,
  0x3da2a92cbe73bd96U, 0x3d011c69be92285bU, 0xbde59bc4be3a79e6U, 0xbef423e3bf095e42U,
  0x3d305eeebea875b9U, 0x3f28861f3d31f971U, 0x3ea1ff913eb5b953U, 0x3e87f4553daae4e4U,
  0x3f51512c3f26957bU, 0x3f2624073ebb73b2U, 0x3efe12163f358609U, 0x3ee4d29e3e87aacaU,
  0x3f35588c3ee5881aU, 0x3e2851633ef67ceaU, 0x3ed41ae63f0f1047U, 0xbdd704e8bdb611bdU,
  0x3eb01c923eabddafU, 0x3dfe541b3e201c8cU, 0x3eef311c3f498a57U, 0x3e934fc3bd288051U,
  0xbe2a2fe03d342173U, 0xbcd80a91be7ae9e6U, 0xbd0b305d3dd728cfU, 0x3ecf012d3e797a63U,
  0x3eabac61bdab833fU, 0xbe24d34c3e298b80U, 0x3ecbef023df5b17dU, 0x3f7fd8093f307308U,
  0x3da4c8f53f0ba38dU, 0xbe8dfa9cbe4e01edU, 0x3e47b4e53e1432ecU, 0xbe3bb9103de1552bU,
  0xbe87c8e0bdb8d615U, 0xbb43beb23d549486U, 0xbee600e6be487161U, 0x3ca9ce98be184dd1U,
  0x3d51e8383e1d2706U, 0x3ea3ec743ed1af55U, 0x3f033bd03f201d93U, 0x3e08acf43e284ec1U,
  0x3ed3d16c3f35b8c5U, 0x3cfe5b393f1bac66U, 0x3e967ece3f0a892bU, 0xbe3d3633bd0d0c66U,
  0xbf4e76e9bc4ffef3U, 0x3d80c49ebe1d4ebeU, 0x3e5d31753ed9ba8dU, 0xbed09ddbbe49636dU,
  0x3e5e82f33d96ddbbU, 0xbe7107143f2e091fU, 0xbe66c41fbed66196U, 0x3eaebaf73db8c8b1U,
  0xbe35d67ebddd60feU, 0xbc8f4057be71fe77U, 0x3eaf2dda3ee8e30bU, 0x3e107d22be5685b1U,
  0xbcecfa6a3bf35246U, 0x3e0e0796bd4d92cbU, 0x3f48d3283ecd9a3fU, 0x3de4f5023f440e0aU,
  0xbd20c2fa3e573732U, 0xbd716cccbe387d4bU, 0xbea31355be79f00dU, 0x3ef2c99c3da1ec10U,
  0x3eba94af3f0ce7e4U, 0x3f4ec3ae3f34e921U, 0x3ee363813f326256U, 0x3ecc50d73f275155U,
  0x3f3d30d83ea5f26cU, 0x3d3cd13e3f3e71fcU, 0x3dccc7a33e3c1b31U, 0x3e4e03d73d4809c7U,
  0x3ec5e53e3ebfb9e6U, 0xbd55a47ebddddfe8U, 0x3e2ea1223e2a4080U, 0x3ea60b22bc55d844U,
  0xbc1a6c4bbd8b993cU, 0xbe7aa66ebe526972U, 0x3e8228493ebb21baU, 0xbd0f5777be2cbef2U,
  0x3f2578d23eb2838dU, 0x3f0eb1b03f107849U, 0x3f1166483f1372ffU, 0x3f0c363b3f54f734U,
  0x3e8168dc3e84f1f4U, 0xbe413a46be461f7dU, 0x3ee3c16abebf3bfeU, 0x3bc2532d3e488a1aU,
  0x3ee7d03a3eaee10aU, 0xbde2a1023c0c085fU, 0xbe555942bd7254cdU, 0xbeb37252bdff2ec8U,
  0xbdde66b9be93fab8U, 0x3d170bc8be75f12aU, 0x3f183b493da26235U, 0x3f5001293f35337cU,
  0x3f1ef6e13f399912U, 0xbe0ab7d03dbb09caU, 0xbde9c3e1be8c1774U, 0xbd76fc12be3f4af2U,
  0x3f9215b53f44031bU, 0x3f1d68173edfef4eU, 0x3ee249da3dfc6b69U, 0xbe9c9d593ebf7c13U,
  0xbea179ebbe80478eU, 0xbdf84cfdbdb81f11U, 0xbe810ecfbe0079a0U, 0x3d280c74be453239U,
  0x3f736e8e3efb0678U, 0x3f7f5f973f525966U, 0x3ee3ca243f1715e0U, 0xbe2fe04b3ee1ed05U,
  0x3e937cf93f2d0379U, 0xbe83f6c03c1e9981U, 0x3f370a773f3b0930U, 0x3f2a59903f31303bU,
  0x3e1d623b3f16c866U, 0xbe6dc40d3dcdca08U, 0xbd8aeb3abe699d82U, 0x3d8d2decbdf3b01aU,
  0x3cebcc6c3ec45371U, 0x3d28d988be7e61d5U, 0xbe0488623d48d581U, 0xbe3c7f95be8ad1faU,
  0x3e144c5a3e415d6eU, 0xbe1dc58a3e828036U, 0x3f281ec73efa08f8U, 0x3e9d7606be68de41U,
  0x3d88dd03be0068f0U, 0xbd37c8f6bccecfafU, 0x3efc645c3e074d17U, 0x3f0525263f371ad4U,
  0xbd9e09693f4634efU, 0x3daf50c7be5d9c70U, 0x3ebd2b7c3d0b2106U, 0xbd661e8f3e3b5ed3U,
  0x3d73e65bbe44242fU, 0x3e45dd913e65c6caU, 0xbc68bba93e325db1U, 0x3d9a06e03db15a7fU,
  0x3dbdd09e3da6ea62U, 0x3e753c103e3844c4U, 0x3eea903c3f14497eU, 0x3ef42de13e86c39fU,
  0x3e6a74633eb39630U, 0x3e5e489b3e281fbeU, 0x3f18e0433eede3f9U, 0xbca7a7873e497582U,
  0x3ea189acbe36c126U, 0x3f14bed33f17faa0U, 0xbc984aac3e0f22a3U, 0x3e3600ab3e6ec3caU,
  0x3f5132793f315246U, 0xbf0f94bdbd86c330U, 0xbe27569fbe6fdea9U, 0x3d4fa005bd4d3dd3U,
  0x3e8a95e6bccc0dc8U, 0xbe91918a3db0f224U, 0xbea7dfb03b0db01aU, 0xbe81991e3e4e9999U,
  0x3e4cb889be9e97d7U, 0x3f21b8383ed9d830U, 0xbe3ccdb93e2f2da6U, 0x3e2466bfbe801d66U,
  0xbd136ede3e704b9cU, 0xbe5f131dbecf417eU, 0x3ebc31b93e4954f1U, 0x3d2875903f2596b5U,
  0xbf071afebda4756bU, 0x3e3aaf5fbe14c521U, 0xbe18d38fbdbd51ccU, 0xbdba0e80bedd7e68U,
  0x3db04e823ecbad5eU, 0xbda6bcc7be8108eaU, 0x3e2cba813e6e5d72U, 0x3ef5d3b13ecd43d1U,
  0xbdd5a5023e2e07b2U, 0xbe84cc3abf0251c0U, 0xbeeeae17be603d37U, 0xbeeeba28bf3dc38cU,
  0x3d98435bba61141dU, 0xbf14bf5bbeea8349U, 0x3e5ddf33be789328U, 0x3d8e3d153e809ac9U,
  0x3b1d57b13c420c38U, 0xbeb3e1bbbeffeccaU, 0xbf05a063bf4ee20dU, 0xbf27e2c8bf46e7bcU,
  0xbf31c015bf711a36U, 0xbb9c5c99be5bfa99U, 0x3e1068353e8c0bbfU, 0x3e4b8ea33b80e6a8U,
  0x3b6a56d2be0a7c76U, 0x3e884d1abcf42895U, 0xbe3a77bb3cd1a7e5U, 0xbe892e36bca33b15U,
  0x3e9853c0be9f9b7aU, 0x3ee16c863d337597U, 0x3f305c783f0002e7U, 0x3f677a303f089657U,
  0x3f577e063f7a9a92U, 0x3e38ee193d6d3c6eU, 0x3f18c5a53f1c593cU, 0x3f8280323f0b888aU,
  0x3e8394583ec32ba3U, 0x3f138d0b3d94694bU, 0x3f3ccbd23f3f0e3fU, 0x3e72c8d93ee58cfeU,
  0x3c5359273d0d25f8U, 0xbe37bbbfbca69f76U, 0xbd96f0b53e1cee10U, 0xbc8f67f63d522c1fU,
  0x3e97c1a0be25a617U, 0x3e4d13f1bdaa958bU, 0x3da659b4bd1d2212U, 0x3df9dc75be3900b2U,
  0x3e8ce34a3e72b3eaU, 0x3e3d60973e120bc3U, 0xbe93cd453e5693dcU, 0xbee34d13be41298bU,
  0xbc3fcba0bed2b5e0U, 0xbeac227abea98cfbU, 0xbf3db172bf138165U, 0xbb9bc759bf5002c2U,
  0x3ebbbacebe5b607eU, 0x3f17c495be188d2eU, 0xbeb7fbae3d78d39fU, 0xbe96e599bdea5fbdU,
  0x3d664890bdc19cf3U, 0xbe5cbb9abe8f24ceU, 0xbeeb3742bf1652faU, 0x3f771b203ee539d3U,
  0x3f1350573f34e2cfU, 0x3eaba9273ecda312U, 0xbe34f9ea3e7484d4U, 0xbd9d7f36be3c5249U,
  0xbe553f863ae8d8ddU, 0xbd45968fbf014765U, 0x3f57ad0e3ed3687cU, 0x3f2e01e83e70a5e9U,
  0xbec4a161bd9c4663U, 0xbe84c1d7be7b9876U, 0xbf19551ebef1810cU, 0xbdf094f7bea8e12cU,
  0xbef29395bee3a619U, 0xbf13bd6abf0be25eU, 0x3e9faf013e48cea5U, 0x3e6777033eea1cf2U,
  0xbeaeefd8bc901603U, 0xbe91934d3b8261d2U, 0xbd210fb6bc982567U, 0xbd6f636fbef11c48U,
  0x3e4465c83f247050U, 0xbe959c7dbd620addU, 0x3b6785aa3c39db18U, 0x3d1b40423f2fbd4aU,
  0xbebc15fdbeb92ec8U, 0xbe4bc4f3be02bffdU, 0x3ea892093de554efU, 0x3f44401f3f6031f6U,
  0x3eaef2de3f11e360U, 0x3e5106f23dd5f4c7U, 0x3e8cd63cbe18ac73U, 0x3e8624403d78ec69U,
  0x3e299af53dd986d0U, 0x3ea67aad3cf5e7d9U, 0x3cede9fa3e7d5c55U, 0x3e978a6fbe2cea29U,
  0xbf408794bdc78278U, 0xbe939733bf23d3ddU, 0x3ce7aab43e724abfU, 0x3e5154a23ea5fd2eU,
  0x3ec487433ef8b5c3U, 0x3ebf15f13f03dfceU, 0xbdfb69dc3e0ec888U, 0xbe468ea2be0a631cU,
  0xbdd96ebdbe2cbc31U, 0x3e9125a4be5c2ab2U, 0x3ee99e9b3d811512U, 0xbea68c18bd1a9654U,
  0x3f04e660bded1d49U, 0x3e823e043e4c8e73U, 0xbee04456bf076c96U, 0xbdf19d7abe1ea913U,
  0x3dd49af7bcd9a9abU, 0xbd9be5ddbd5a7815U, 0xbd09a1e53dd6bdbeU, 0x3e1151973eb8b0a8U,
  0xbe2019233dc667cfU, 0x3dbe5e85be8c896dU, 0xbe6b0e163e35138dU, 0x3ea2a284bd666065U,
  0x3e801b0f3e4b8764U, 0x3ecdb10b3ed8cba5U, 0x3f1a7c97bdd9328dU, 0xbe8ad6523d3a8fdaU,
  0x3e7d543d3e2968f4U, 0xbcd57c3a3d8498a3U, 0xbe2192583c3e2cb2U, 0xbe82fbe9bdb1b7a1U,
  0xbd89185abe0c6992U, 0x3e90e879be3c01faU, 0x3eaac1d93e869db8U, 0x3e6cedabbd012966U,
  0xbe51db19bccf083cU, 0x3d3e01b2be581c9bU, 0xbd177242be29dfebU, 0x3eb320f8b9a261e4U,
  0x3e044379be95fd6dU, 0x3cc97f453e5dadccU, 0x3f1d2efcbdf83a9eU, 0x3d9c89d13f4c10d3U,
  0x3e433e393c45fe49U, 0x3e8a502f3eb7431fU, 0xbe970532be815720U, 0x3cdd0b1cbed1fc76U,
  0x3dc60a903d4d7b91U, 0xbead4289bd436f06U, 0xbd7fa9d4bded146fU, 0xbc68d1f3bc70a3e1U,
  0xbeafbcd4bd27cad1U, 0xbe4c0bccbf2fe5daU, 0x3e033ed93f45e34dU, 0xbe8aedd83d92e460U,
  0x3dde7a423e0321e1U, 0x3eb76b2e3cdc3208U, 0x3ee7fcf8be056924U, 0xbe8a46943e0b5892U,
  0x3d3631843cf995d1U, 0x3eb028943d561813U, 0xbd23d6003e7321ccU, 0xbd9f4bc23e6b5a24U,
  0xbc1bdfddbd84952cU, 0x3d098a5d3d862682U, 0x3bf105c13eeb57acU, 0x3e212c0bbf046b3fU,
  0xbe93d44c3e5fb40cU, 0xbe9d4ee03e2acb47U, 0x3e1fdcc3be436965U, 0x3e6e0f383de20158U,
  0x3e77f0f43ea1d9efU, 0x3e00e30b3e8e2eb7U, 0x3d04cbecbe4ba0faU, 0xbc83311fbed02b44U,
  0x3db7112fbe00693fU, 0xbe55391b3d3c913bU, 0xbb42ae30bd86075eU, 0xbec66d1f3e11fc5cU,
  0xbe01838bbac3b8a3U, 0xbd7025443e3c2ad6U, 0x3e75254e3e97ebc9U, 0x3e928b6abe1a954cU,
  0x3e87d8d73d69ba81U, 0x3c48b28b3f5230c5U, 0xbe28954b3e190061U, 0xbd90616d3d9d6557U,
  0xbe52e3a4be407ff7U, 0x3ddc105dbe379252U, 0xbd803c8d3ed2fee7U, 0xbebcf007bedd13e7U,
  0x3eb49326bd64dccbU, 0x3d9dc3d23c64a8abU, 0x3db232d83eb1ff28U, 0x3e897bc93bdbebeaU,
  0x3ea9100c3e6db975U, 0x3dd342e73dd07841U, 0xbf0193c9be8cfbbaU, 0x3d9f44813e631eeeU,
  0x3d663a45be9c134dU, 0xbe1a0125bdb4b780U, 0x3d9424eebd4b3b40U, 0x3ebf70c5bd56fdf7U,
  0x3e61a3b13dfe87ebU, 0xbed01f1dbd945a1bU, 0xbf373a9abf17b60aU, 0x3db32e27beec0ae7U,
  0x3f10e25b3ea4f0a2U, 0x3e1f11523f2876f2U, 0x3ebe1755bd2b637aU, 0x3e4004b2bd4d75a4U,
  0x3d2a6d163e054121U, 0xbe816f9ebe835c62U, 0x3daf70393c8d988dU, 0xbdc4cac53da2f3c9U,
  0x3c70f080bd8be578U, 0xbe807693be42fab0U, 0xbe2a368ebd377022U, 0xbd90ba773e70d1d0U,
  0xbc56da423e360862U, 0xbe1a2e2dbe1d29a1U, 0xbedd1527bf43eae7U, 0x3c9e989ebf035741U,
  0x3d94ffb9be9a5a82U, 0xbeda5e143ed28ab9U, 0x3f3db53dbe332e91U, 0xbf0c680ebe840dc6U,
  0x3d521a35bdd455daU, 0x3e8a70e33e08ead1U, 0x3e8d62073ea04126U, 0xbee4c1cb3e037d08U,
  0xbe240d20bd96e6caU, 0xbd9ebe66bdaca473U, 0x3f06f5f53e88f2afU, 0x3d40e3bf3e71a66eU,
  0xbf16dc14bd909c2eU, 0xbf709f3bbf491220U, 0x3ddb2033bf18a342U, 0x3e93d08b3d6a5de5U,
  0xbe4f2c72be9a7106U, 0x3e9e32413e27c9e6U, 0x3eabcf883dd62f99U, 0x3e1a4f9f3cfe2493U,
  0x3e83b37f3eb9a2a0U, 0xbe71226d3e8ebfdaU, 0xbec8097bbe831841U, 0xbe278cb7beeadd11U,
  0x3daa44cfbd38d70bU, 0x3eee58f13dc61a71U, 0x3ec9f1253e1addcfU, 0xbe5c584c3e8f3c3eU,
  0x3e9193f03e1d6897U, 0x3e8bba293e8fea81U, 0x3dd7ee30bc864bd3U, 0xbbdd9e86be751f4fU,
  0xbea87b98bdc9efd2U, 0xbf18c1f6bec14e9dU, 0xbf0e1216bf0c8336U, 0x3eb76b8bbeb40c39U,
  0x3f0b676f3e97c2f6U, 0xbc9731f83ec9d3d3U, 0x3da4a716beac094aU, 0x3e92f6713d6ddeb2U,
  0x3d375aeb3eb3c21cU, 0x3ccec55e3de5a168U, 0x3db130803d0369aeU, 0xbe3b2c893d958901U,
  0x3e74e347bf4f74afU, 0x3ea827ba3eac64acU, 0x3eeea07f3e82b1f0U, 0xbdb1c07bbd7f8cfaU,
  0x3dc892403d2d8f0cU, 0x3ca12057be2f1f1fU, 0xbea65706be16efb1U, 0x3e1b457dbea87e06U,
  0xbe8d900b3e15faf6U, 0xbe7a09e7be92029eU, 0x3dbe566abe0b7559U, 0x3f11fe643f6f6e3aU,
  0xbea40e6b3dad9fe9U, 0xbb8887b2bda84978U, 0x3ccc20d2be936e22U, 0x3d4a3e4dbea7c475U,
  0x3e359a62be4c992fU, 0x3e1660c93e5f56bdU, 0x3e96a13a3e314b6fU, 0x3ed2e0553dc6487eU,
  0xbf3a14e5be03bde7U, 0xbe768684bef6ead5U, 0x3df8975abeb3d81bU, 0x3f09fcab3edd7c27U,
  0x3ef5dfbc3ec2484aU, 0x3e46c11a3dea616cU, 0xbe2669c43ed3b230U, 0x3ea5840cbe897698U,
  0x3e13e4223e3557a7U, 0x3f1afff23e483a76U, 0x3e41d2213e3cafedU, 0xbe6b63263e4f5d36U,
  0xbe8431debf0760a7U, 0xbbaa1e9e3dc2d99aU, 0x3e6af898b8e6eeb8U, 0xbd25d2663e7b8754U,
  0xbd8e06ad3e74fdb3U, 0x3e045fafbe82a1f6U, 0x3e52fc1d3dcf0057U, 0x3f0a80393e8ff109U,
  0xbde194523d85a8b6U, 0xbeb4da7abede455fU, 0x3f04347dbf070f57U, 0xbde34ead3ebcc9b6U,
  0x3d72ee973dbedebcU, 0x3eac2b553e4fa4a9U, 0xbde6a750bd4286a0U, 0x3c8a9776bed51ca6U,
  0xbe4a16bdbe4bfc3cU, 0xbdf6f3aebef09eadU, 0xbd7942c3bde07302U, 0xbe513546bdeb7a30U,
  0xbe237521bd106d70U, 0x3e85c9ed3d2e6ff7U, 0x3d89b71dbdf3fa14U, 0x3d91aa183b85783dU,
  0x3e09100e3dc0bce9U, 0x3d402749be275f66U, 0x3e2756193eb20198U, 0x3df13cec3e7cef6cU,
  0xbe3dc22abe095b9bU, 0xbeb9e7fdbe6219b3U, 0xbe055f47bcf21d67U, 0x3e16a4f93e80f32cU,
  0xbcaf685e3e2e7ba7U, 0xbe47a47d3db74028U, 0x3ecdc1113b7df5d9U, 0x3e840d983e5a4cd9U,
  0xbea6d84fbf0e1882U, 0xbe161f5e3db901bcU, 0xbe975f3abf3ea65eU, 0x3d0a7499bd9dbc28U,
  0x3e5533e5be3c2d0fU, 0x3df16e86bd5cb049U, 0x3ecc75943e45e2a5U, 0x3e5a82cc3da9f535U,
  0xbf1b29eabe92dab5U, 0xbd1e6e43bea06606U, 0x3f0c24613e04b26cU, 0xbea7c752bdd57305U,
  0xbdd7c9b5bd291a33U, 0xbe8d190abf0afccdU, 0x3f09223abd462a9dU, 0x3e953d7d3e52fb1bU,
  0x3ea5f4733e4fae36U, 0xbeee79afbde88335U, 0x3d36f4ecbe58a5a1U, 0x3e689d333ef895b8U,
  0xbd8443533ecd466cU, 0xbf553e76bec02e70U, 0x3d8b7f1fbe546154U, 0x3e4faaf63e6b401eU,
  0x3e5621513eba3a9dU, 0x3ef655da3ec430c1U, 0xbc2e65303eae4d42U, 0x3e71bbc53c71c715U,
  0x3db45bda3e9e6959U, 0x3f2a28bc3e9e1946U, 0x3e9abcfc3ead4abfU, 0xbe3e2d143dd82cb4U,
  0xbe1063833d6ec299U, 0x3d6af6eebdf48c16U, 0x3e0ad192bd623703U, 0xbe8fdd59bec65d30U,
  0x3de691d8bed0a6a0U, 0xbe062e84bdd43189U, 0xbe987fe13c741f32U, 0x3e123ce8be8c32ceU,
  0x3d345a52bd6700adU, 0xbda5dc803ef369bcU, 0xbe4d52e83f1ec39aU, 0x3e7f4d3d3cca4f38U,
  0x3dac5b2f3e3af8ffU, 0x3e27f1f33eb2f5e3U, 0x3e2d91e63e41d0d9U, 0x3f1adc573f10720eU,
  0x3f6330803f41631fU, 0x3eea9e3b3f3d78ccU, 0x3e119bf03e988ceaU, 0xbe05fe103e2c7f3aU,
  0xbd37146b3d9d4dddU, 0xbd58eaaf3de35816U, 0xbd5ca6893d8eeacaU, 0xbe773612bd7f3204U,
  0xbf0bcec1be56faf6U, 0x3dcf01e9bd197412U, 0xbecc7d843f15bbddU, 0xbed6d5f3bf080fcdU,
  0xbe94abe2bec16ab4U, 0xbec7c458be7971e6U, 0xbf00f3c6bec2733cU, 0xbe8c6856bf274c26U,
  0x3ce200733e61226eU, 0xbd61af0dbe2627f2U, 0xbe853e31bde30ec9U, 0x3d9be337bd91fd97U,
  0x3e81b7a5be2b214cU, 0x3eb3db653e8a7123U, 0x3dc2a9d93e8881f5U, 0x3ec4323ebe35fdd9U,
  0x39cc5cf03e26a8e9U, 0x3da71b8e3e7bdf06U, 0x3e2cb4ac3ae9db1aU, 0x3e3cdc233d187d26U,
  0x3d10fd50ba9d65d0U, 0x3e26285a3e179867U, 0xbf1c5d6ebe22ce45U, 0xbf350859bf984552U,
  0xbf7ae1c3be9228f8U, 0xbf00bfb5bf137e5aU, 0xbf0ad3a8bf16d707U, 0xbe1ae7e73e1c60ccU,
  0xbe026a9b3dc370beU, 0x3e3ef4023d2a4860U, 0x3bf40ba83e4bd4c9U, 0x3d4704443d87c633U,
  0x3d91ba9e3e58396dU, 0x3ebfb4fb3e85c699U, 0x3e0e93a53edd0bdfU, 0x3dbeeb3a3be5720fU,
  0x3e82694e3e7fb929U, 0x3d6cfedd3dea3e46U, 0xbc9c70853df9171eU, 0x3e8c29bcbd2fdbf1U,
  0x3dbd2805bb9b47a8U, 0xbd3fd596bcef702cU, 0x3f133bed3f0711baU, 0x3e0e09b9bd83338bU,
  0xbe2af5b53cee172cU, 0xbe0f5331bc3886ddU, 0xbe6658483c47d176U, 0x3dcd868c3ce61023U,
  0xbe570995be4dbcb4U, 0xbd07c87fbe946b19U, 0x3e3a15753de1861dU, 0x3e52ca153dead8acU,
  0x3d639e453dd47a2fU, 0x3c785c9c3dd6b4cdU, 0x3dafb8923d8f6ce4U, 0xbed12d4abe56f02eU,
  0xbe04cda63d09acc0U, 0x3e7e17bdbd4d51ccU, 0x3e803e5f3ea8695fU, 0x3e8f11da3e164898U,
  0x3eb672b03d9f3eefU, 0x39172c443e9b8541U, 0x3e8a16cd3e4315fcU, 0xbeb5dc42be3510ddU,
  0xbed9823fbe073df6U, 0xbe8a8291beaae5afU, 0xbda3e9abbe0c4061U, 0xbd9febe0be0b9991U,
  0xbc6e49313e7cb6afU, 0xbe896c1fbe858eb4U, 0x3e65afbdbf3835f1U, 0x3f1dd1a6bebd988bU,
  0x3e6a55893dc56b79U, 0xbce9de0e3cccac0aU, 0xbd9b4fc4bdb53245U, 0xbded7121bb719be6U,
  0x3d4413b3bd983138U, 0xbdefd1f53d89b58cU, 0xbd890b7cbe107180U, 0x3f2f49f6bd8e7328U,
  0x3e0f6e113f3c637fU, 0xbe27d8323df8d54cU, 0xbd073994bd93f610U, 0x3e5ff57ebe166c16U,
  0xbe980248bb4c73dcU, 0xbe88867dbd627a76U, 0x3eba39d6bde1119fU, 0x3dafc28c3d3de873U,
  0xbe03ec273c92955fU, 0x3d75c7debda24a45U, 0xbd9defc73d70eee9U, 0x3e664fb5bd8bf66bU,
  0x3edb855e3e4b5a61U, 0x3e6d79f83ec3b0edU, 0xbe67d81ebe013c54U, 0xbe9a8a84be885386U,
  0xbea16ed5be8a6b7bU, 0xbde1447cbea27913U, 0x3e90dd17be0b769eU, 0xbd1e453fbddd14c5U,
  0xbce8515d3ee56670U, 0x3e2fcb7d3ded2b80U, 0x3e8f9dcb3c1c6d98U, 0x3e0bcddb3de4f31bU,
  0x3cfcb5423d1afebeU, 0x3cae657e3e91c9aeU, 0x3df00cc4bd0b795bU, 0x3e46a8513e2d45b7U,
  0x3ded0b753e83dd0fU, 0x3e0b33df3e8e32b2U, 0x3da101a23e8a51e6U, 0x3d50efdc3f02ac52U,
  0x3ea737873f1909d1U, 0x3e2afc12be2a5f9dU, 0x3f562eb23f03115dU, 0x3ec3c21b3f4818a4U,
  0x3edc679e3f115949U, 0x3dbccf0f3e87e3f6U, 0xbed42e9ebe82f35fU, 0x3d97aab9bdd7ce4dU,
  0x3d823c723e813b1bU, 0xbdcf87b83d4c7e06U, 0x3e7af52abd078655U, 0x3e997da93dbb77fdU,
  0x3f65980a3e2fef8aU, 0x3eb1d0d63f3e1a2aU, 0x3e4f613c3ed8a9c2U, 0xbeeeae7b3b0b9503U,
  0xba761cd5be9bde63U, 0x3dee68c53eb5f1bfU, 0x3d607f19bda5606bU, 0xbed56b61be850d30U,
  0xbeaf8f41be70a045U, 0x3e66bfebbeaa6780U, 0x3e6c5f4f3ea85c0aU, 0xbe2597eabe08205eU,
  0x3c3b3965bcc71ea7U, 0xbc9bc872bd2db0f5U, 0xbe0cc13abe65d1b7U, 0xbda26724bd5b99cfU,
  0xbeb989fd3d9bcca7U, 0x3e0d550fbe2d7400U, 0x3f04f8293ddc35ffU, 0x3cd53a2c3cc25eeeU,
  0xbe61becebce39848U, 0xbd9720f8bd30af71U, 0xbd6518b2bd805317U, 0x3f131d993e216bb0U,
  0xbdf20d953eb38977U, 0xbe15d6b73e37e67aU, 0x3ef6032e3eb1d2ecU, 0x3ec0ceca3ee0bacfU,
  0x3d8613503de7f594U, 0xbcf975453dfdd812U, 0xbc3f64adbe5e3cb0U, 0x3d708269be8b5381U,
  0xbdf65cb73ea7fc75U, 0xbe01ed09bc52bb5aU, 0x3e10d86e3e300f41U, 0x3e299f7fbda72f20U,
  0xbda843a7bdd869d8U, 0x3e6896afbda955d9U, 0x3e46ef7d3eae2967U, 0xbed9ca07bb4e699aU,
  0xbe048a28be708c82U, 0x3e0dcd3e3d921926U, 0x3f18d48c3eeb016fU, 0x3ea3b9ae3f759a47U,
  0x3cdbb2283d8ab1a4U, 0xbe5810eb3e554568U, 0x3d10901abd25b1b2U, 0x3c4a80aebd273baeU,
  0x3c2b9f13be1237d0U, 0x3d660825bd4385c5U, 0xbe5eab28b9beccdcU, 0xbef4d048bcd8151aU,
  0xbd47095cbef1c81aU, 0xbe06a6b03e0358a1U, 0x3e9c3b043e657bb4U, 0x3eb50caa3efbc158U,
  0x3e978ed03e79348bU, 0x3dae9d6a3e03aa5eU, 0x3e9b5bfe3e16d498U, 0xbd3b5d3f3e9b36dcU,
  0x3e0c7bd2be385fe9U, 0x3edf07c03e4d58adU, 0x3f1178af3f09c217U, 0x3f12da773ecad8c4U,
  0xbef142143ed4f70eU, 0xbeec05dabee95b4cU, 0x3d60f2e1bdb67fb2U, 0x3c24de1dbe13ba5dU,
  0xbdda50a53c09d6c9U, 0xbe2409d1bd8fe638U, 0xbb42810dbe78a88fU, 0x3e6ccc173e3a15dcU,
  0x3eab0af2be497e96U, 0x3df7ee953f0ea258U, 0x3e5972493e97192eU, 0x3e1c44023e8a248dU,
  0xbca093163e40ff14U, 0x3c2c6d003dab4a86U, 0x3e1583273e433adbU, 0xbf838d7cbe94970eU,
  0xbde81cfbbf31dfc0U, 0x3d3ef5093d4682e2U, 0x3dd6462ebdae5de4U, 0x3c296e363c9a806aU,
  0xbde7d5643e60da1cU, 0xbea8012c3e79ff40U, 0x3ed4bbabbeb24da0U, 0xbe3b5e943de32072U,
  0xbe8f362abd1f0a7dU, 0x3bc140313c439e7dU, 0xbdaac87c3d438a1fU, 0xbd2c97e4bd4a85aaU,
  0xbd5dae9abdde683bU, 0xbe7ffbe6bda017f9U, 0x3de3f0f93e806b54U, 0x3f0e3a853ec52a92U,
  0x3f53eb513ecdb651U, 0x3f403c983f3d8424U, 0x3f4ede3d3f6ef00dU, 0x3f2227653f409888U,
  0xbe99f32abe932aa2U, 0xbe9f66c4bd7e58f7U, 0xbe27e1e33e813ad7U, 0x3d916130becfa48dU,
  0xbe8e1be5be050509U, 0xbe742ad2beb42ed3U, 0x3e405199be0be8deU, 0x3e7e30553e806b6cU,
  0xbef955f0be7cf3c0U, 0xbde7a210be92a9a2U, 0x3e618d4fbbbb08b6U, 0x3e63a0a23e21a08aU,
  0x3eacad8d3e784631U, 0xbd8762363ecdec92U, 0xbe843ffabe9d9fcfU, 0xbf06b9e0bf131e37U,
  0xbe932b6dbea8a283U, 0xbec5e8143e89fd82U, 0xbe22b782be26dbcfU, 0xbecf6a29bea32faeU,
  0xbec5ac4ebe533e51U, 0x3e9f65ecbf065306U, 0x3e44c00e3ed25ab8U, 0x3e6ae0483e787576U,
  0x3df0d6173e1a468bU, 0x3e067e473e36c624U, 0x3ec3e7e13e057166U, 0xbf3156a6bf061214U,
  0xbe93d8b4bf545405U, 0x3e108b19be26ef03U, 0x3e28feb83e71f2bbU, 0x3db5c0123dfd485bU,
  0x3dc35ad83e0df689U, 0xb82e9714bba316d4U, 0x3d066d473e7c9939U, 0x3e13c46c3e411754U,
  0x3e06d8323dfab989U, 0x3db5e23dbd09930dU, 0x3e0cbfd43e06e4e0U, 0x3df1fe943e0320a0U,
  0x3da6e6043e1c436fU, 0xbe10c228bca9fb36U, 0x3e279a94bb9b4f60U, 0x3eed2b11bd8a0c4fU,
  0xbef3fac5bcf076d8U, 0xbf79a0b6bea9835bU, 0x3e1d47adbe9c0d8aU, 0x3eb5203e3eb9eab1U,
  0x3e8ec22e3f04a01aU, 0x3e83e4413e462029U, 0x3ee337183d9d3cf2U, 0x3faf0c463f83a643U,
  0x3f9d394a3fa6d092U, 0x3f9701173f98e30bU, 0x3ebaf9463f42ec5eU, 0xbeabe02e3ea45cc0U,
  0x3ddcf6e8bd4ab40aU, 0x3e7b15633e124f69U, 0xbcdb4fddbe814c5fU, 0xbf08fd43bf0fe065U,
  0xbe435b94beab8fbfU, 0x3e2ed6ea3e1362b6U, 0xbe394a803e8c2094U, 0x3d34fec7bbd8ad63U,
  0x3f1597ca3e19be30U, 0x3e53981a3edc91adU, 0x3ec144ef3dca48afU, 0x3e3ae6c43ea52eedU,
  0x3d82f28d3edacf82U, 0x3c11eee0bedda5b1U, 0x3eb0a9fb3ecaf9e0U, 0x3e9478f8bb2abf9bU,
  0x3ecfff9d3e897b8bU, 0x3e3f3a253e283bdcU, 0xbda7b462be6b3442U, 0xbd5c83d2be63b904U,
  0xbd327368bee3fc70U, 0xbefd73f7bed72f0bU, 0xbe7b1b70be6ce8b2U, 0xbe8fc907bda9c89cU,
  0xbd64b8e2be73293dU, 0xbe70b975be78fb47U, 0xbe9722123cab03a3U, 0x3f2b78ecbc835a64U,
  0x3e5f4fc83f323badU, 0xbe2e56c93dfc7120U, 0xbbb16601be81a100U, 0x3e8d7a483edd4d33U,
  0x3f299f8a3e111b89U, 0xbe7263263ebdb04cU, 0xbd9dccd9be5435f5U, 0x3ef5828b3f0d8cfeU,
  0x3f3885163f237887U, 0x3f51fdfa3eb95397U, 0x3e383b82bc64ea45U, 0x3ed88c3cbbee84ffU,
  0x3f4acdf73edf1770U, 0xbecbb0933ec44998U, 0xbe3211b93e972bc4U, 0xbee8dcf93e1e61d4U,
  0x3d7290193db4d57fU, 0xbef9ad18beff0fecU, 0x3df021353e1aaa85U, 0x3ee72b333e9e070dU,
  0x3f8122b73f2dea7fU, 0x3f1c30a23f3d0974U, 0x3bcc2a473e2352b7U, 0x3e99086d3e3c38b7U,
  0xbe7979c3beac96faU, 0xbd56126d3e75df5eU, 0xbf4c7ccdbc22f782U, 0xbdc2568abe2d0ec6U,
  0x3ecc20903e455432U, 0xbdcc6d72bda80555U, 0x3f73c3783ee158e7U, 0x3e153e293e9ab81fU,
  0xbeb3ea7abd575d2eU, 0xbec45ad6bf2cc55dU, 0x3a9eb503befa5215U, 0x3ebc55f33e12b614U,
  0x3ef559623ed35bafU, 0x3f3108633f4a6851U, 0x3e0a4f463ee33edfU, 0x3ee81aaf3ecfa5c4U,
  0x3ec939013edc7f80U, 0xbdc8516c3e67912bU, 0xbdfc8064beaae654U, 0x3ed30f3e3c127823U,
  0x3d75403dbdb01f22U, 0x3e2112d03e37aec0U, 0x3f14cc12bd569603U, 0x3efa25703f2ea0ecU,
  0x3d509c6a3ec224a1U, 0x3f24ccdebea30e86U, 0x3f2ff3993f896ee6U, 0x3bd642a13ea8e391U,
  0xbddb630fbe980b94U, 0x3e7019703d43dae9U, 0xbebb22873dfc1fa6U, 0x3e0bab48bf0c7cfbU,
  0x3ed2f8933f21b759U, 0x3dc3aff23dcb29faU, 0x3eba16cf3e73bce7U, 0xbd49ae0e3e897918U,
